#include "magic_wand_model_data.h"
#include <stdalign.h>

alignas(16) const unsigned char magic_wand_model_data[] = {
  0x1c, 0x00, 0x00, 0x00, 0x54, 0x46, 0x4c, 0x33, 0x14, 0x00, 0x20, 0x00,
  0x1c, 0x00, 0x18, 0x00, 0x14, 0x00, 0x10, 0x00, 0x0c, 0x00, 0x00, 0x00,
  0x08, 0x00, 0x04, 0x00, 0x14, 0x00, 0x00, 0x00, 0x1c, 0x00, 0x00, 0x00,
  0x88, 0x00, 0x00, 0x00, 0xe0, 0x00, 0x00, 0x00, 0x54, 0x0f, 0x00, 0x00,
  0x64, 0x0f, 0x00, 0x00, 0xe8, 0x1d, 0x00, 0x00, 0x03, 0x00, 0x00, 0x00,
  0x01, 0x00, 0x00, 0x00, 0x04, 0x00, 0x00, 0x00, 0xee, 0xee, 0xff, 0xff,
  0x0c, 0x00, 0x00, 0x00, 0x1c, 0x00, 0x00, 0x00, 0x38, 0x00, 0x00, 0x00,
  0x0f, 0x00, 0x00, 0x00, 0x73, 0x65, 0x72, 0x76, 0x69, 0x6e, 0x67, 0x5f,
  0x64, 0x65, 0x66, 0x61, 0x75, 0x6c, 0x74, 0x00, 0x01, 0x00, 0x00, 0x00,
  0x04, 0x00, 0x00, 0x00, 0x94, 0xff, 0xff, 0xff, 0x13, 0x00, 0x00, 0x00,
  0x04, 0x00, 0x00, 0x00, 0x07, 0x00, 0x00, 0x00, 0x64, 0x65, 0x6e, 0x73,
  0x65, 0x5f, 0x31, 0x00, 0x01, 0x00, 0x00, 0x00, 0x04, 0x00, 0x00, 0x00,
  0x7e, 0xf0, 0xff, 0xff, 0x04, 0x00, 0x00, 0x00, 0x0c, 0x00, 0x00, 0x00,
  0x63, 0x6f, 0x6e, 0x76, 0x31, 0x64, 0x5f, 0x69, 0x6e, 0x70, 0x75, 0x74,
  0x00, 0x00, 0x00, 0x00, 0x02, 0x00, 0x00, 0x00, 0x34, 0x00, 0x00, 0x00,
  0x04, 0x00, 0x00, 0x00, 0xdc, 0xff, 0xff, 0xff, 0x16, 0x00, 0x00, 0x00,
  0x04, 0x00, 0x00, 0x00, 0x13, 0x00, 0x00, 0x00, 0x43, 0x4f, 0x4e, 0x56,
  0x45, 0x52, 0x53, 0x49, 0x4f, 0x4e, 0x5f, 0x4d, 0x45, 0x54, 0x41, 0x44,
  0x41, 0x54, 0x41, 0x00, 0x08, 0x00, 0x0c, 0x00, 0x08, 0x00, 0x04, 0x00,
  0x08, 0x00, 0x00, 0x00, 0x15, 0x00, 0x00, 0x00, 0x04, 0x00, 0x00, 0x00,
  0x13, 0x00, 0x00, 0x00, 0x6d, 0x69, 0x6e, 0x5f, 0x72, 0x75, 0x6e, 0x74,
  0x69, 0x6d, 0x65, 0x5f, 0x76, 0x65, 0x72, 0x73, 0x69, 0x6f, 0x6e, 0x00,
  0x17, 0x00, 0x00, 0x00, 0x70, 0x0e, 0x00, 0x00, 0x68, 0x0e, 0x00, 0x00,
  0x54, 0x0e, 0x00, 0x00, 0x38, 0x0e, 0x00, 0x00, 0x24, 0x0e, 0x00, 0x00,
  0x0c, 0x0e, 0x00, 0x00, 0xf4, 0x0d, 0x00, 0x00, 0xc4, 0x0d, 0x00, 0x00,
  0x74, 0x0d, 0x00, 0x00, 0x64, 0x01, 0x00, 0x00, 0x34, 0x01, 0x00, 0x00,
  0xdc, 0x00, 0x00, 0x00, 0xd4, 0x00, 0x00, 0x00, 0xcc, 0x00, 0x00, 0x00,
  0xc4, 0x00, 0x00, 0x00, 0xbc, 0x00, 0x00, 0x00, 0xb4, 0x00, 0x00, 0x00,
  0xac, 0x00, 0x00, 0x00, 0xa4, 0x00, 0x00, 0x00, 0x9c, 0x00, 0x00, 0x00,
  0x94, 0x00, 0x00, 0x00, 0x74, 0x00, 0x00, 0x00, 0x04, 0x00, 0x00, 0x00,
  0x56, 0xf1, 0xff, 0xff, 0x04, 0x00, 0x00, 0x00, 0x60, 0x00, 0x00, 0x00,
  0x0c, 0x00, 0x00, 0x00, 0x08, 0x00, 0x0e, 0x00, 0x08, 0x00, 0x04, 0x00,
  0x08, 0x00, 0x00, 0x00, 0x10, 0x00, 0x00, 0x00, 0x28, 0x00, 0x00, 0x00,
  0x00, 0x00, 0x06, 0x00, 0x08, 0x00, 0x04, 0x00, 0x06, 0x00, 0x00, 0x00,
  0x04, 0x00, 0x00, 0x00, 0x01, 0x00, 0x00, 0x00, 0xeb, 0x03, 0x00, 0x00,
  0x0c, 0x00, 0x18, 0x00, 0x14, 0x00, 0x10, 0x00, 0x0c, 0x00, 0x04, 0x00,
  0x0c, 0x00, 0x00, 0x00, 0xe0, 0x8f, 0xcb, 0xed, 0x7a, 0x6c, 0xbd, 0x6d,
  0x02, 0x00, 0x00, 0x00, 0x02, 0x00, 0x00, 0x00, 0x04, 0x00, 0x00, 0x00,
  0x06, 0x00, 0x00, 0x00, 0x32, 0x2e, 0x32, 0x30, 0x2e, 0x30, 0x00, 0x00,
  0xc2, 0xf1, 0xff, 0xff, 0x04, 0x00, 0x00, 0x00, 0x10, 0x00, 0x00, 0x00,
  0x31, 0x2e, 0x31, 0x34, 0x2e, 0x30, 0x00, 0x00, 0x00, 0x00, 0x00, 0x00,
  0x00, 0x00, 0x00, 0x00, 0x9c, 0xe4, 0xff, 0xff, 0xa0, 0xe4, 0xff, 0xff,
  0xa4, 0xe4, 0xff, 0xff, 0xa8, 0xe4, 0xff, 0xff, 0xac, 0xe4, 0xff, 0xff,
  0xb0, 0xe4, 0xff, 0xff, 0xb4, 0xe4, 0xff, 0xff, 0xb8, 0xe4, 0xff, 0xff,
  0xbc, 0xe4, 0xff, 0xff, 0x02, 0xf2, 0xff, 0xff, 0x04, 0x00, 0x00, 0x00,
  0x48, 0x00, 0x00, 0x00, 0x12, 0xb3, 0x11, 0xc7, 0xe4, 0x43, 0x7f, 0x03,
  0xf3, 0x35, 0xf7, 0x4c, 0xdf, 0x66, 0x7b, 0x82, 0x0b, 0x7f, 0x35, 0x46,
  0x4b, 0x7f, 0xf6, 0x9b, 0x40, 0x3a, 0x8e, 0x7f, 0xf1, 0xe7, 0x26, 0xbf,
  0x0a, 0x7b, 0x54, 0x0e, 0xe0, 0xe5, 0x8c, 0xdc, 0x7f, 0x28, 0x75, 0x2e,
  0xbc, 0xa7, 0x58, 0x45, 0x63, 0x81, 0x84, 0x04, 0x21, 0x24, 0xa0, 0x3d,
  0xf5, 0x6c, 0x81, 0xe5, 0xf0, 0xfa, 0x38, 0x79, 0x62, 0x52, 0xbc, 0x81,
  0x54, 0xea, 0xa2, 0xe1, 0x56, 0xf2, 0xff, 0xff, 0x04, 0x00, 0x00, 0x00,
  0x20, 0x00, 0x00, 0x00, 0x18, 0x00, 0x00, 0x00, 0xfa, 0xff, 0xff, 0xff,
  0x42, 0x00, 0x00, 0x00, 0xef, 0xff, 0xff, 0xff, 0xff, 0xff, 0xff, 0xff,
  0x09, 0x00, 0x00, 0x00, 0xf6, 0xff, 0xff, 0xff, 0x10, 0x00, 0x00, 0x00,
  0x82, 0xf2, 0xff, 0xff, 0x04, 0x00, 0x00, 0x00, 0x00, 0x0c, 0x00, 0x00,
  0x2f, 0x6d, 0xbe, 0x43, 0x28, 0xbc, 0xcc, 0xf8, 0x44, 0x96, 0xc4, 0xe3,
  0x60, 0x35, 0xd9, 0x98, 0x06, 0xb8, 0xb5, 0xe0, 0xf5, 0x9f, 0x02, 0x0e,
  0x15, 0x96, 0xdf, 0x65, 0xd9, 0x6b, 0xf8, 0xc0, 0x4f, 0xd3, 0x4a, 0x31,
  0x1b, 0x82, 0x4e, 0xf5, 0xcd, 0xbe, 0xca, 0x69, 0x3f, 0x36, 0x38, 0x3e,
  0xab, 0x1c, 0xc3, 0x4b, 0xe4, 0x5f, 0xf8, 0x96, 0x19, 0x42, 0xfe, 0x3a,
  0x83, 0x6e, 0xd7, 0x15, 0xd4, 0x05, 0x00, 0x07, 0x85, 0xc0, 0x99, 0x01,
  0xab, 0x02, 0x67, 0xb0, 0xa4, 0x86, 0x08, 0x41, 0x51, 0xa4, 0x13, 0x86,
  0x60, 0xdc, 0x97, 0x08, 0x46, 0x17, 0x68, 0xdd, 0x24, 0x99, 0x26, 0xbe,
  0xc8, 0xb7, 0x40, 0xcd, 0x0e, 0xfd, 0xdf, 0x9d, 0xc1, 0xfb, 0xcc, 0xf3,
  0x10, 0xc1, 0x62, 0x3b, 0xfc, 0x33, 0xd6, 0x49, 0x24, 0xbf, 0xe8, 0xf7,
  0x87, 0x55, 0xd4, 0xca, 0x0b, 0x3a, 0x3a, 0xe0, 0xad, 0x84, 0x1a, 0xc7,
  0x31, 0x4c, 0x56, 0x0a, 0x17, 0x25, 0x51, 0xfb, 0xe9, 0x11, 0xfe, 0xe1,
  0x85, 0xba, 0x92, 0x5a, 0xdd, 0x58, 0xed, 0xd0, 0x8a, 0x0e, 0xdc, 0xcc,
  0x21, 0x92, 0x8e, 0x0b, 0xa8, 0xe6, 0x59, 0xcd, 0x08, 0x5d, 0x66, 0x2a,
  0xe6, 0xe3, 0xe8, 0x8e, 0x5d, 0xa4, 0xfc, 0x46, 0xcb, 0x3e, 0xe2, 0xb6,
  0xe1, 0x2b, 0x0f, 0x9d, 0x00, 0x09, 0x2e, 0x20, 0x15, 0x62, 0x4b, 0x81,
  0x12, 0x48, 0x37, 0x81, 0xc5, 0xff, 0x24, 0x73, 0x6a, 0xe4, 0xa2, 0xce,
  0x01, 0xe0, 0x3a, 0xc7, 0xe2, 0xb8, 0x91, 0xd5, 0xf1, 0xbf, 0xd9, 0x6b,
  0x21, 0x6f, 0x1a, 0x21, 0x3f, 0x04, 0xcc, 0xe9, 0x6c, 0x45, 0x88, 0x91,
  0xa7, 0x3f, 0xaf, 0x0c, 0xc6, 0x57, 0xed, 0x96, 0xf5, 0x9d, 0xfd, 0x1c,
  0x1f, 0x00, 0xbe, 0x4d, 0x4d, 0x9a, 0xb3, 0xed, 0x5e, 0xc2, 0x85, 0x42,
  0xc8, 0x01, 0xf1, 0x58, 0xf5, 0xc3, 0x9e, 0xa0, 0x52, 0xd2, 0x23, 0x1b,
  0xb9, 0x53, 0x09, 0xa9, 0x4f, 0x1f, 0xc7, 0x3a, 0xdc, 0x42, 0xdd, 0xb2,
  0xa4, 0x16, 0x03, 0xd7, 0x20, 0x5f, 0x48, 0xcc, 0x35, 0x29, 0x6c, 0x27,
  0xf8, 0xb7, 0xf6, 0xe5, 0xf8, 0xa7, 0xc8, 0xd0, 0x25, 0xe0, 0x11, 0xb1,
  0x44, 0x01, 0x3c, 0x56, 0xff, 0x40, 0xb2, 0x23, 0x37, 0x1e, 0xcd, 0x1a,
  0x6b, 0xd3, 0x2d, 0x9f, 0x2d, 0x10, 0x0b, 0xf7, 0x5d, 0xe7, 0x86, 0xde,
  0x5b, 0xfa, 0xd6, 0x46, 0x06, 0xd8, 0x41, 0xc6, 0x41, 0x4b, 0x0b, 0xf2,
  0xab, 0xf2, 0x87, 0xe8, 0x59, 0xca, 0xc9, 0x60, 0x04, 0xff, 0xb6, 0xf1,
  0xc3, 0xaa, 0xdc, 0xbb, 0x5b, 0x1b, 0xe7, 0x23, 0xec, 0x52, 0xf0, 0x12,
  0xbf, 0x64, 0x59, 0xc9, 0xe3, 0xb5, 0x54, 0xb1, 0x4b, 0xb6, 0x32, 0xef,
  0x3a, 0xce, 0xad, 0x0a, 0xd0, 0xe4, 0xad, 0x31, 0xfa, 0x50, 0xcc, 0xd2,
  0x49, 0x9a, 0xfb, 0x4b, 0xb5, 0xb0, 0xc1, 0xc8, 0x59, 0xfd, 0xc1, 0x66,
  0xc6, 0x14, 0xa9, 0x4e, 0x16, 0x9a, 0x26, 0xaa, 0xe8, 0x75, 0xd6, 0x05,
  0xaf, 0xfc, 0x2f, 0x39, 0x45, 0x70, 0xd7, 0x97, 0xad, 0x0d, 0x90, 0x84,
  0x68, 0x6f, 0x85, 0x5c, 0x84, 0x5a, 0xad, 0xb7, 0xff, 0x64, 0x1c, 0x0f,
  0x5f, 0xe4, 0x70, 0x64, 0x00, 0xf6, 0xa0, 0x00, 0x23, 0x53, 0x31, 0x6e,
  0x97, 0x2a, 0x56, 0x4d, 0x15, 0x8b, 0xc8, 0xf2, 0x25, 0xf7, 0xc0, 0x13,
  0xa4, 0xbe, 0x1e, 0x3b, 0x41, 0xa6, 0xe0, 0x54, 0xea, 0xa6, 0x61, 0x94,
  0x43, 0x56, 0x65, 0x40, 0x4a, 0xf5, 0x34, 0x3a, 0x04, 0x9f, 0x81, 0xca,
  0x2f, 0xd7, 0xef, 0xbf, 0x95, 0x20, 0xbc, 0xba, 0x11, 0x4c, 0x89, 0x68,
  0x4f, 0x0e, 0x1b, 0x06, 0x85, 0x87, 0xd8, 0x0f, 0xe7, 0x13, 0xcb, 0x16,
  0x8b, 0xe3, 0x24, 0x34, 0x5e, 0x33, 0x55, 0x95, 0x18, 0xd0, 0x1a, 0x2c,
  0x48, 0xc0, 0x41, 0x5c, 0x8b, 0x0c, 0x24, 0x14, 0x29, 0xb1, 0x2e, 0xf6,
  0x97, 0xc2, 0x9d, 0x92, 0x3f, 0xf1, 0x32, 0x21, 0x4d, 0x97, 0x48, 0x6d,
  0x1f, 0x3f, 0xc9, 0x8f, 0x11, 0x98, 0x55, 0x9f, 0xd5, 0x40, 0x05, 0xf5,
  0xa6, 0x89, 0xf3, 0x8d, 0x2f, 0x6e, 0x59, 0x57, 0x8a, 0x0e, 0x17, 0xbf,
  0xda, 0x3d, 0x18, 0x85, 0x21, 0xaa, 0xe3, 0x22, 0x53, 0xb4, 0x9d, 0x68,
  0x1d, 0xc9, 0x1f, 0x7f, 0x47, 0x09, 0x47, 0x63, 0x2d, 0xeb, 0x4d, 0xeb,
  0xc0, 0xc5, 0x53, 0x4d, 0x15, 0xe2, 0xb4, 0x63, 0x4d, 0x6c, 0x5e, 0xaf,
  0xe9, 0xc4, 0x4f, 0x68, 0xed, 0x5a, 0xd7, 0xbf, 0xef, 0xcb, 0x0e, 0x11,
  0xf6, 0xd3, 0xf9, 0x63, 0x55, 0x4a, 0x05, 0xfe, 0xa4, 0xfb, 0x1a, 0x4f,
  0x46, 0x31, 0xd0, 0x42, 0x29, 0xc8, 0x27, 0x05, 0xce, 0xcc, 0xbf, 0xd1,
  0x2d, 0x23, 0x24, 0xea, 0xc1, 0xd6, 0xe8, 0x5d, 0x52, 0x47, 0x02, 0x15,
  0xd3, 0x3e, 0xac, 0xfc, 0x11, 0x0e, 0x18, 0xc0, 0x47, 0x07, 0x00, 0xad,
  0x03, 0xe4, 0x5e, 0x48, 0xaa, 0xcb, 0xfe, 0xd1, 0xdc, 0xce, 0xfc, 0xe9,
  0x42, 0xb2, 0xcd, 0xe9, 0xcc, 0x72, 0xd4, 0x4e, 0x23, 0xda, 0x3b, 0xda,
  0x06, 0x36, 0xc9, 0xdd, 0xc6, 0xfc, 0xbc, 0x6f, 0x41, 0xf7, 0xc7, 0x0b,
  0xd0, 0xc0, 0x3f, 0xdc, 0x34, 0xdd, 0x19, 0x00, 0xa9, 0xf6, 0x2c, 0x00,
  0xfb, 0xea, 0x36, 0x58, 0x62, 0xd5, 0x5b, 0xda, 0xe7, 0x1e, 0x56, 0xd1,
  0xb6, 0x12, 0xe6, 0xd2, 0x46, 0x1b, 0xfa, 0x46, 0x5f, 0xea, 0x5b, 0x77,
  0xb3, 0x2b, 0x44, 0x11, 0x42, 0x4e, 0xfc, 0x67, 0x59, 0x35, 0x43, 0x22,
  0x5e, 0xff, 0x0f, 0x44, 0x29, 0x5c, 0xd3, 0xc3, 0x0d, 0x4b, 0x40, 0xdc,
  0x1b, 0xc0, 0x0d, 0xb2, 0xc2, 0x0a, 0xf7, 0x4b, 0x2f, 0x36, 0x2c, 0x30,
  0x2b, 0x65, 0x3e, 0x3a, 0x61, 0xa6, 0x2d, 0x08, 0x8f, 0x60, 0x26, 0xd2,
  0x1c, 0x2a, 0xaf, 0x57, 0x56, 0xf2, 0xfd, 0x40, 0xf3, 0xc9, 0x5b, 0x3d,
  0x45, 0xc8, 0xc1, 0x3c, 0x11, 0x35, 0x52, 0x28, 0x09, 0xf6, 0x01, 0x69,
  0xdd, 0x47, 0xe8, 0x92, 0xdd, 0xfb, 0x73, 0x03, 0x6a, 0xe6, 0x1d, 0xbc,
  0xef, 0x0c, 0xfc, 0x2b, 0xa7, 0x6d, 0xb9, 0x1a, 0x26, 0xca, 0x42, 0xfd,
  0x35, 0x77, 0x5c, 0x34, 0x40, 0xff, 0x74, 0xf5, 0xe0, 0x0d, 0x07, 0xf4,
  0xfc, 0x3a, 0x34, 0x7f, 0xd0, 0x2c, 0xf1, 0xa6, 0xd3, 0xa2, 0x33, 0x4a,
  0xc9, 0x04, 0xf0, 0x0f, 0x9f, 0x0d, 0x61, 0x59, 0xbb, 0xe0, 0x2a, 0x4f,
  0xe4, 0xf8, 0xe5, 0x3e, 0x5a, 0xe7, 0xd2, 0x91, 0x51, 0x02, 0xfa, 0x60,
  0x6f, 0x45, 0xb6, 0xe4, 0x09, 0x14, 0xfe, 0x2f, 0x5d, 0xc3, 0x03, 0x0e,
  0x62, 0x52, 0x21, 0x4d, 0xd9, 0xe9, 0x2b, 0xfe, 0x43, 0x31, 0x4c, 0x3b,
  0xbf, 0x30, 0x0a, 0x5a, 0xab, 0x24, 0x29, 0x79, 0xf5, 0xec, 0xe9, 0x01,
  0xfc, 0xa2, 0xfa, 0xf2, 0x04, 0xdb, 0x1c, 0x1c, 0xd0, 0x2b, 0x76, 0x34,
  0xb4, 0x1d, 0x66, 0xbf, 0x35, 0x1f, 0xf9, 0xdd, 0x4f, 0x46, 0x4b, 0xf2,
  0xa5, 0xa1, 0x0c, 0xf4, 0x49, 0xdd, 0xa8, 0xb2, 0x40, 0x4c, 0xe5, 0xce,
  0xdc, 0xce, 0xcd, 0x35, 0x06, 0x2c, 0xdf, 0x3c, 0x34, 0xe0, 0x25, 0x29,
  0x74, 0x55, 0x99, 0x99, 0x9c, 0x98, 0xcc, 0xf8, 0x35, 0x19, 0x1d, 0xfc,
  0xd3, 0x28, 0x3c, 0x0b, 0xe3, 0x52, 0xd8, 0x15, 0xae, 0xf6, 0x1f, 0x61,
  0xc9, 0x1d, 0xf1, 0x06, 0xcd, 0x33, 0x53, 0x40, 0x3a, 0xd6, 0x33, 0xfb,
  0x4b, 0x91, 0x0f, 0x2c, 0x58, 0xaf, 0x96, 0xa8, 0xce, 0x09, 0xc6, 0x14,
  0x54, 0xf2, 0x4c, 0x4c, 0x0d, 0xb8, 0xd9, 0x1d, 0x9d, 0xf5, 0xda, 0x81,
  0xe6, 0x94, 0x18, 0xf7, 0x55, 0x63, 0x2e, 0x22, 0x60, 0xa0, 0x4a, 0xd2,
  0xa7, 0xaa, 0xa6, 0x86, 0x99, 0xdb, 0x51, 0x0a, 0xd7, 0x2a, 0x24, 0xe4,
  0x20, 0xa0, 0xfc, 0x0a, 0x41, 0x3f, 0x06, 0xd6, 0xea, 0x24, 0xc8, 0xbe,
  0xf2, 0x24, 0x92, 0x0d, 0x99, 0xd4, 0xa3, 0x11, 0x3e, 0xf7, 0x2c, 0x4b,
  0x24, 0x29, 0xb0, 0x30, 0x04, 0xc6, 0xa1, 0x91, 0x2b, 0xa3, 0xf5, 0x15,
  0x35, 0x6d, 0xa2, 0x20, 0x2a, 0x44, 0x5a, 0x1a, 0xd9, 0xb7, 0xe2, 0xb0,
  0x35, 0x2c, 0x69, 0x58, 0xe9, 0xcd, 0x15, 0xa3, 0x3c, 0x0c, 0xc8, 0xc8,
  0xfb, 0xe5, 0xa4, 0xb2, 0xb2, 0x0f, 0xfc, 0xa3, 0xe7, 0x43, 0xf4, 0xdf,
  0xe9, 0x9a, 0x22, 0xcb, 0x46, 0x00, 0xa3, 0x45, 0xc6, 0xde, 0x9f, 0x3a,
  0x2c, 0x00, 0xe1, 0x9f, 0x29, 0xed, 0x45, 0x71, 0xdc, 0x57, 0x09, 0xb3,
  0xdd, 0x90, 0xe0, 0x42, 0x6a, 0x20, 0xea, 0x4d, 0x58, 0x94, 0xfa, 0x2d,
  0xcc, 0x1c, 0xef, 0x3b, 0x5e, 0xd7, 0x1e, 0x4a, 0x49, 0x3e, 0xd9, 0x2d,
  0xab, 0x51, 0x48, 0x40, 0xb8, 0x39, 0x3f, 0x40, 0xed, 0x4e, 0x01, 0xb8,
  0xd1, 0x4d, 0xff, 0x48, 0xa2, 0x7f, 0xa2, 0xfb, 0x43, 0xf2, 0xd9, 0x38,
  0x61, 0x7d, 0xd6, 0xb9, 0xf5, 0xa7, 0xc5, 0x0d, 0xc8, 0xd5, 0x1a, 0x25,
  0x51, 0xe9, 0x35, 0xc2, 0xae, 0xcb, 0x3a, 0x9b, 0xf2, 0x94, 0x3e, 0x72,
  0x2b, 0x1b, 0xed, 0xe2, 0xe2, 0x56, 0x5c, 0xec, 0xca, 0x7f, 0xa1, 0x3b,
  0xbd, 0xbd, 0xd2, 0x56, 0x31, 0xbf, 0xb2, 0xff, 0x2b, 0xfc, 0x1c, 0x60,
  0xe3, 0xc4, 0x0b, 0x50, 0x54, 0x36, 0xd8, 0x35, 0x55, 0x19, 0xb6, 0xea,
  0x64, 0x38, 0x52, 0x27, 0x01, 0xbe, 0x60, 0xef, 0xad, 0x55, 0xb5, 0x4c,
  0xe9, 0x0b, 0xb0, 0x21, 0xf4, 0xed, 0x61, 0xc0, 0x5b, 0xc7, 0x99, 0x3f,
  0x43, 0x3c, 0xda, 0x64, 0x1d, 0x5b, 0x12, 0x5b, 0x58, 0xf1, 0xdd, 0xdc,
  0x3f, 0xc1, 0xec, 0x55, 0x60, 0x98, 0x6e, 0x65, 0x9f, 0xc3, 0x08, 0xe6,
  0x50, 0x98, 0x5e, 0x34, 0xab, 0xd8, 0xae, 0xf1, 0xb6, 0xe5, 0xa7, 0x62,
  0x38, 0xba, 0xe7, 0xc8, 0x02, 0x15, 0x6e, 0x17, 0x0a, 0x09, 0x4b, 0xb3,
  0xf4, 0x40, 0x28, 0x52, 0x2d, 0xb8, 0x50, 0xf3, 0xfa, 0xd3, 0x6b, 0x02,
  0xe3, 0x45, 0xb9, 0x94, 0xb1, 0xa9, 0x75, 0x19, 0xe8, 0xc6, 0x20, 0x34,
  0x62, 0xa6, 0x35, 0x41, 0xb4, 0xcc, 0xfb, 0xdb, 0xbd, 0xfa, 0x50, 0x0a,
  0x43, 0x07, 0xfa, 0x36, 0x84, 0x59, 0x4a, 0xaa, 0x86, 0x34, 0x2c, 0x36,
  0xaf, 0x4d, 0x30, 0x82, 0x0a, 0xce, 0xc8, 0xec, 0xc3, 0xd7, 0x94, 0xb4,
  0x27, 0x3a, 0x15, 0x54, 0x67, 0x2d, 0xd0, 0x53, 0x9f, 0xb5, 0x6a, 0x2a,
  0x53, 0x6e, 0x82, 0xe6, 0x0a, 0x5a, 0xe5, 0xd2, 0xd1, 0x3c, 0x64, 0x5b,
  0x58, 0xc2, 0x3e, 0x2e, 0x69, 0xea, 0x33, 0xcb, 0xb4, 0x66, 0x2e, 0x44,
  0xe8, 0xc2, 0x8a, 0x86, 0x1b, 0xd3, 0xde, 0x52, 0xaa, 0x6e, 0xa8, 0x12,
  0x59, 0x06, 0x04, 0xa7, 0xfb, 0x3a, 0x13, 0xc1, 0x04, 0x33, 0x8c, 0xa9,
  0xbc, 0x52, 0xb2, 0x11, 0xa5, 0xa9, 0x15, 0x63, 0xc7, 0x9c, 0x60, 0xe8,
  0x20, 0x0e, 0x20, 0xf4, 0x16, 0xce, 0xdb, 0x3e, 0xe7, 0x5e, 0xa1, 0x88,
  0x5e, 0xf4, 0x57, 0xb0, 0xd7, 0xe9, 0x8d, 0x92, 0xeb, 0x9f, 0x2e, 0x9d,
  0x3f, 0xd6, 0x3b, 0xc9, 0xda, 0xd8, 0xae, 0x28, 0x51, 0x4b, 0x81, 0x9e,
  0x91, 0x5c, 0x28, 0x31, 0x20, 0x1d, 0x2f, 0xa0, 0xc8, 0xfa, 0xee, 0xe6,
  0x5d, 0x6d, 0x45, 0x98, 0x08, 0xc8, 0x1c, 0xd0, 0x99, 0x61, 0xbf, 0xdc,
  0x22, 0xde, 0x58, 0xaa, 0x47, 0x51, 0x93, 0xe9, 0xbc, 0xa9, 0xf1, 0xc0,
  0xf1, 0x9b, 0xd7, 0x86, 0xd7, 0x82, 0x40, 0xa3, 0xf2, 0x94, 0x2a, 0x24,
  0xc0, 0xfc, 0x5a, 0x47, 0x99, 0x07, 0x02, 0x20, 0x06, 0xf5, 0xe2, 0x17,
  0xbf, 0xf0, 0xd3, 0x1b, 0xa1, 0xfd, 0x18, 0x51, 0xb6, 0xf1, 0x53, 0xd4,
  0x24, 0xf4, 0xd2, 0x20, 0xf2, 0xd6, 0x0e, 0x34, 0xc1, 0xdf, 0x46, 0x0e,
  0x94, 0xe4, 0x99, 0xb6, 0x88, 0x0d, 0x00, 0xc1, 0x34, 0x49, 0x84, 0xad,
  0x65, 0xea, 0x04, 0x93, 0xaf, 0xf7, 0x93, 0xa1, 0x43, 0x18, 0xff, 0x95,
  0xa0, 0x2d, 0x59, 0xe3, 0x56, 0xd3, 0x3a, 0x5c, 0x8d, 0xbf, 0x49, 0x3c,
  0x9a, 0xda, 0x65, 0x5f, 0x14, 0xf3, 0x3d, 0xdf, 0xb8, 0x8e, 0x89, 0xea,
  0x64, 0x01, 0x29, 0x2a, 0x4a, 0x4a, 0x92, 0x53, 0x02, 0xa8, 0x87, 0xd0,
  0xaf, 0xff, 0x98, 0x34, 0x00, 0xa7, 0x25, 0xab, 0x65, 0x0e, 0xcd, 0x18,
  0xd1, 0x3f, 0xfe, 0x8a, 0xfa, 0x90, 0x06, 0xf0, 0xae, 0x5c, 0x00, 0x0a,
  0x56, 0xcb, 0xeb, 0xf7, 0x64, 0xc1, 0xa6, 0xa2, 0x05, 0xba, 0xcf, 0xef,
  0x41, 0xc5, 0xc7, 0x3c, 0x30, 0xd2, 0x2c, 0xeb, 0xb3, 0x58, 0x07, 0x81,
  0x2e, 0xfc, 0x8a, 0xf9, 0x6e, 0xc6, 0x06, 0xc3, 0x43, 0x51, 0x02, 0xe0,
  0x10, 0x6b, 0xd0, 0xcc, 0x0d, 0x3e, 0x67, 0xc5, 0x91, 0x01, 0xa2, 0x35,
  0xe5, 0xb0, 0xa0, 0x53, 0xec, 0xf6, 0x49, 0xd7, 0x54, 0x02, 0x52, 0xb5,
  0x6c, 0xbd, 0xe3, 0xbf, 0xd6, 0x06, 0x25, 0xaf, 0x5f, 0x6c, 0x55, 0x3a,
  0xb8, 0x67, 0xe0, 0x50, 0x05, 0x4e, 0xe3, 0xdc, 0x47, 0xb6, 0x13, 0xec,
  0xda, 0x2d, 0xf6, 0x33, 0xb2, 0xb8, 0x59, 0x0b, 0x14, 0xcd, 0x27, 0x36,
  0xcb, 0xc5, 0x63, 0x01, 0x46, 0x53, 0xd3, 0xda, 0xe6, 0xa4, 0xe7, 0xe6,
  0x58, 0xb8, 0xdd, 0xe6, 0x48, 0x66, 0x53, 0x49, 0xc3, 0xda, 0xf9, 0xeb,
  0xc5, 0xf4, 0xcf, 0x7f, 0x59, 0xc0, 0xb4, 0x21, 0x6e, 0xa8, 0x5e, 0xe7,
  0x55, 0x6a, 0xe9, 0x23, 0xba, 0x06, 0x71, 0x36, 0xb9, 0x18, 0x65, 0xb1,
  0xa4, 0xe9, 0x1d, 0x37, 0xa9, 0xd1, 0xfb, 0x2d, 0xd1, 0x45, 0x41, 0xe1,
  0x34, 0x0d, 0xd6, 0x4d, 0xc3, 0xda, 0x6e, 0x5c, 0xce, 0x2a, 0x0a, 0xfb,
  0x32, 0xe3, 0xf9, 0x1b, 0xf2, 0xbd, 0xa6, 0xa4, 0x50, 0xa1, 0xc2, 0xf4,
  0xeb, 0xb3, 0x39, 0xf4, 0x21, 0xf1, 0xe0, 0x4b, 0xcd, 0x14, 0x50, 0x3e,
  0xfa, 0x03, 0x30, 0x3f, 0x64, 0x2d, 0x04, 0xde, 0x45, 0x35, 0xe3, 0x2a,
  0x56, 0xaf, 0xfe, 0x66, 0x28, 0x12, 0xef, 0x4c, 0xa8, 0x2c, 0x56, 0x98,
  0xdc, 0xfa, 0x01, 0xe4, 0xd1, 0x13, 0xeb, 0x49, 0xcd, 0x18, 0x0a, 0x47,
  0x20, 0xf4, 0xfe, 0x0d, 0x64, 0x55, 0x4f, 0x75, 0x2e, 0x46, 0x35, 0xf6,
  0x17, 0xc8, 0x73, 0x25, 0x0f, 0x62, 0x42, 0x1e, 0x55, 0xe4, 0x71, 0xd0,
  0xc1, 0xf2, 0xef, 0x67, 0x5a, 0x09, 0xea, 0x6a, 0x66, 0x01, 0x41, 0x52,
  0x18, 0x0d, 0x2f, 0xf8, 0x73, 0xf8, 0x40, 0x96, 0x81, 0x8d, 0xfd, 0xce,
  0x6b, 0xaf, 0x52, 0x9f, 0x36, 0x67, 0x90, 0xf7, 0x8a, 0x2c, 0x03, 0xfc,
  0x5c, 0xde, 0xf7, 0x34, 0x8c, 0x39, 0x07, 0x34, 0xc6, 0x22, 0x92, 0x08,
  0xe7, 0xdc, 0xa2, 0xdf, 0x93, 0x2b, 0x14, 0xe2, 0xbb, 0x0d, 0x4d, 0xf7,
  0x53, 0x45, 0x85, 0xdb, 0xcb, 0xd0, 0x39, 0x0f, 0xae, 0xed, 0x37, 0x4a,
  0x39, 0xfc, 0x20, 0xfb, 0xa0, 0xb0, 0x14, 0x2b, 0x39, 0x03, 0x1a, 0xe7,
  0xef, 0x33, 0x28, 0x61, 0xe5, 0x2a, 0x95, 0x45, 0x43, 0xb2, 0xe8, 0x61,
  0x6b, 0x0c, 0xac, 0x88, 0x5f, 0x6d, 0x63, 0x87, 0x82, 0x4e, 0xc9, 0x5e,
  0xc5, 0xe2, 0xf9, 0xb9, 0x56, 0x55, 0xc1, 0x99, 0xcb, 0xae, 0x10, 0xaa,
  0x66, 0x8f, 0x18, 0x91, 0xcc, 0xfa, 0xa2, 0xd5, 0x4b, 0xfa, 0x31, 0xb1,
  0xee, 0x8d, 0xe1, 0xa9, 0x2e, 0xf4, 0x44, 0x05, 0x35, 0x5d, 0xe0, 0xbd,
  0x02, 0x20, 0xdb, 0xb6, 0x2f, 0x83, 0xf6, 0x94, 0x08, 0x8b, 0xd9, 0x8c,
  0xfa, 0xea, 0x2c, 0xa2, 0x58, 0x11, 0xf3, 0x4b, 0xff, 0x96, 0xf4, 0x31,
  0x42, 0x2d, 0xfa, 0x63, 0x58, 0x5d, 0xd4, 0x9e, 0xf1, 0x34, 0x61, 0xd7,
  0xb7, 0xf2, 0x20, 0x37, 0x05, 0xd7, 0xc5, 0xee, 0x81, 0x65, 0x65, 0xfd,
  0x2b, 0x4c, 0x6d, 0xfb, 0x91, 0xa4, 0xc1, 0xb6, 0xae, 0x1e, 0xd3, 0x97,
  0x92, 0xf2, 0x3f, 0xb3, 0x18, 0x9f, 0xdf, 0x56, 0x1c, 0x02, 0x18, 0xeb,
  0xd1, 0xe0, 0x39, 0xa0, 0x22, 0xe7, 0xeb, 0x92, 0xa8, 0x34, 0xf6, 0x19,
  0x11, 0x59, 0x6a, 0xb0, 0xf1, 0x49, 0xbd, 0xca, 0x67, 0x39, 0x2f, 0xb1,
  0xb6, 0x3e, 0x29, 0x34, 0x51, 0x48, 0x6b, 0x10, 0x61, 0xfa, 0xb2, 0x16,
  0xde, 0xed, 0x6a, 0x27, 0x11, 0x7d, 0x2c, 0xe7, 0xe5, 0xbb, 0x1b, 0x54,
  0xe1, 0x08, 0x12, 0x51, 0x59, 0x2b, 0xd6, 0xbf, 0x46, 0xfb, 0x5a, 0xd5,
  0x4d, 0x06, 0x04, 0x02, 0x70, 0x11, 0x31, 0x47, 0x41, 0xe1, 0xf5, 0x10,
  0xaf, 0x0c, 0xdb, 0xbf, 0x3e, 0x09, 0x48, 0x24, 0xf8, 0x61, 0xec, 0xc9,
  0x5e, 0xb2, 0x3e, 0xf7, 0xb6, 0x5f, 0xc5, 0x17, 0xca, 0x2d, 0x67, 0xbe,
  0x05, 0x14, 0xb9, 0xd0, 0xf9, 0x01, 0x48, 0x7f, 0x36, 0x0d, 0xb5, 0xf8,
  0xd9, 0xff, 0x4d, 0x10, 0x59, 0x2f, 0x15, 0x1b, 0xf9, 0x9d, 0xc4, 0xd2,
  0xee, 0x6d, 0x6b, 0xec, 0x52, 0x1f, 0x7d, 0xeb, 0xc9, 0x1a, 0xb0, 0x99,
  0x2e, 0xfe, 0x15, 0xc4, 0xf7, 0x77, 0xa0, 0x1f, 0xcd, 0x99, 0x53, 0x16,
  0x30, 0xf7, 0x4a, 0xd5, 0x6b, 0x24, 0x1a, 0xe2, 0x3b, 0xd3, 0x22, 0x1b,
  0x30, 0x44, 0x15, 0x5f, 0xd7, 0xff, 0x9b, 0x28, 0xa4, 0xe7, 0x50, 0xf3,
  0xcb, 0xd9, 0xc8, 0xa0, 0x0d, 0x13, 0x10, 0xb7, 0xb5, 0xda, 0xe8, 0x9c,
  0x46, 0xc3, 0xc1, 0xb5, 0xc0, 0xb4, 0x4c, 0x3b, 0x00, 0xab, 0xf9, 0x7f,
  0xee, 0xe4, 0x01, 0x12, 0xfa, 0x20, 0x0d, 0xeb, 0x58, 0x0d, 0xda, 0x95,
  0x39, 0x00, 0xd0, 0xfa, 0xb6, 0x08, 0xac, 0xc3, 0x27, 0xf0, 0x1f, 0x59,
  0x0f, 0xb5, 0xc3, 0xae, 0x51, 0xb7, 0x74, 0xdc, 0x4e, 0xde, 0xae, 0xbc,
  0xc4, 0x5e, 0xec, 0xf0, 0x2d, 0x17, 0x9d, 0x36, 0xac, 0xa8, 0x69, 0x0d,
  0x6d, 0xf2, 0xbb, 0xda, 0x54, 0x54, 0xfb, 0x17, 0xc0, 0xcb, 0xfe, 0x98,
  0x16, 0x9b, 0xaf, 0x05, 0x9e, 0x03, 0xb3, 0xe5, 0xb7, 0x41, 0xc2, 0x77,
  0xe1, 0x7f, 0x54, 0x5d, 0xa8, 0xde, 0xc2, 0x18, 0xf0, 0xbc, 0x39, 0xce,
  0x58, 0x3d, 0xc5, 0x0a, 0x5b, 0x52, 0xcb, 0x10, 0xb1, 0x4e, 0x38, 0x71,
  0xa5, 0xae, 0x4c, 0x3c, 0x39, 0xe8, 0xda, 0x75, 0x1d, 0xc8, 0x1d, 0xec,
  0x0d, 0x64, 0xff, 0xd3, 0xdb, 0x37, 0x3a, 0xc9, 0x5d, 0x57, 0x03, 0x57,
  0x2d, 0x0b, 0x44, 0xc5, 0x19, 0x3c, 0xf7, 0xac, 0xa4, 0x57, 0x22, 0x21,
  0xfc, 0xe6, 0x6a, 0xd4, 0x11, 0xc1, 0x24, 0xd2, 0xc9, 0x20, 0x73, 0x68,
  0xf8, 0xc5, 0x44, 0xac, 0x41, 0xc8, 0x6f, 0x27, 0x56, 0x52, 0xf3, 0x1e,
  0x31, 0xad, 0x11, 0xc5, 0x71, 0x57, 0xe8, 0x23, 0x40, 0xcb, 0x67, 0x21,
  0x67, 0xf3, 0xb0, 0x3b, 0x36, 0xfb, 0x38, 0x7f, 0xfb, 0x12, 0x0a, 0x06,
  0xca, 0x0e, 0xbd, 0xa6, 0xee, 0xf4, 0x25, 0xec, 0xd1, 0x16, 0x86, 0x50,
  0x37, 0xf1, 0x61, 0xd3, 0x73, 0xdd, 0xc2, 0x43, 0xba, 0x34, 0x11, 0x41,
  0xd4, 0x30, 0x99, 0xf6, 0xbb, 0x06, 0x4a, 0x1f, 0x5d, 0xfb, 0x41, 0xeb,
  0x61, 0x81, 0xeb, 0x1d, 0x1d, 0x2f, 0xf1, 0xa5, 0x9e, 0x07, 0x15, 0xbd,
  0x8d, 0x71, 0xce, 0x41, 0x57, 0x48, 0xf8, 0xc9, 0x01, 0x45, 0xa9, 0x4b,
  0x4d, 0x29, 0xa5, 0xd8, 0xb2, 0x58, 0x1c, 0x0c, 0x61, 0x1c, 0x06, 0x02,
  0x63, 0xd7, 0x1c, 0x9a, 0x02, 0x22, 0xdb, 0x30, 0x50, 0xf1, 0x10, 0xac,
  0x61, 0xf6, 0x32, 0xf3, 0x4e, 0xe6, 0x58, 0x16, 0xfb, 0x16, 0x45, 0xcd,
  0x00, 0xc3, 0x35, 0x8c, 0xc3, 0xad, 0xbc, 0x5f, 0x39, 0x70, 0x03, 0xe7,
  0xfa, 0x16, 0xdb, 0xf8, 0x56, 0xef, 0xd2, 0x13, 0x34, 0xbe, 0x6c, 0x03,
  0x0a, 0xe0, 0x86, 0x18, 0x57, 0xeb, 0x50, 0x5e, 0x4f, 0x41, 0x48, 0x51,
  0x36, 0xec, 0x4b, 0xfd, 0xaf, 0xd2, 0x25, 0x50, 0x08, 0x1a, 0xee, 0x0f,
  0xc5, 0xff, 0xfd, 0x44, 0x2e, 0xba, 0x56, 0x13, 0x5b, 0xfe, 0x04, 0x42,
  0xe0, 0xd7, 0x62, 0x5f, 0x07, 0x9c, 0x0c, 0xb1, 0x05, 0xf8, 0x60, 0x3d,
  0x4c, 0xf8, 0xe0, 0x4a, 0xe2, 0x0b, 0x2a, 0xd3, 0xd8, 0xc6, 0xd9, 0xb9,
  0x49, 0x38, 0x01, 0xe3, 0xec, 0x3b, 0x51, 0x90, 0x9a, 0xef, 0xf3, 0xa7,
  0x42, 0x8e, 0x1f, 0x19, 0x8f, 0xf1, 0x2f, 0x47, 0x2a, 0x85, 0x99, 0xf6,
  0x02, 0xa1, 0x8b, 0xc8, 0xaa, 0x2a, 0x48, 0xdc, 0x1a, 0xed, 0xee, 0x98,
  0xcc, 0x0d, 0x24, 0xbb, 0x2a, 0xef, 0x26, 0xe5, 0x22, 0xe3, 0xf2, 0xbd,
  0xc8, 0x83, 0x24, 0x85, 0xdf, 0xaa, 0xb1, 0x69, 0x5e, 0xfa, 0x0e, 0x5b,
  0x3f, 0x27, 0xcb, 0xbd, 0x5a, 0xe5, 0xe0, 0x1b, 0xa2, 0xdc, 0x61, 0xfa,
  0x9f, 0x62, 0x00, 0x29, 0xc5, 0x0f, 0xeb, 0xd0, 0x43, 0xe8, 0xee, 0x2f,
  0xd6, 0xd1, 0x11, 0xc9, 0xfb, 0xf5, 0xc1, 0x42, 0x27, 0xaf, 0x5a, 0x88,
  0xb6, 0x2a, 0x37, 0x0a, 0x36, 0x8d, 0xcc, 0xd4, 0xa3, 0xb8, 0x14, 0x57,
  0x33, 0xb8, 0xa2, 0x19, 0x5e, 0x1e, 0x0a, 0x5c, 0xd1, 0x29, 0xc3, 0xe2,
  0xcf, 0xc4, 0x81, 0xbc, 0x6a, 0x68, 0x45, 0x45, 0x84, 0xbb, 0x0e, 0xc4,
  0xe0, 0x4e, 0x92, 0x56, 0x56, 0x61, 0xb7, 0x2b, 0x4d, 0xf6, 0x25, 0x1d,
  0x67, 0x3c, 0xf1, 0xa6, 0x53, 0x8d, 0xdd, 0x94, 0x51, 0x3b, 0xe2, 0xe1,
  0x23, 0x9a, 0xea, 0x09, 0x8a, 0xc5, 0x00, 0x15, 0x5b, 0xa5, 0xe4, 0x68,
  0x3f, 0x64, 0xda, 0x3e, 0x91, 0xe3, 0x1b, 0xb7, 0x84, 0x88, 0x9e, 0xb8,
  0xec, 0x18, 0x8b, 0x4d, 0x61, 0xd1, 0xd7, 0x51, 0x39, 0xf2, 0x19, 0x56,
  0x0e, 0x51, 0x1e, 0x26, 0x58, 0x15, 0x3e, 0x94, 0x06, 0xb0, 0x13, 0x25,
  0xed, 0x9e, 0xd8, 0x7c, 0xb4, 0xba, 0x38, 0x2e, 0x64, 0xd5, 0xfb, 0xee,
  0x07, 0x0a, 0xba, 0xdd, 0x48, 0x0c, 0x48, 0xcc, 0x30, 0x1e, 0x17, 0xf2,
  0x3e, 0x52, 0x49, 0x0b, 0x13, 0x1d, 0xa4, 0xc6, 0x3d, 0xaf, 0x49, 0xf3,
  0xab, 0x5e, 0xfa, 0xfa, 0x21, 0xba, 0x36, 0x3f, 0xe2, 0xb8, 0xa7, 0xca,
  0x2e, 0x2e, 0x11, 0x0c, 0xaf, 0x4e, 0x13, 0x9c, 0x47, 0x4d, 0x08, 0xb7,
  0xc3, 0xce, 0xda, 0xbd, 0xc6, 0x08, 0x63, 0x7f, 0x5b, 0x1d, 0x0f, 0xf0,
  0xa9, 0xd4, 0x28, 0x70, 0xdc, 0xe1, 0x30, 0x0f, 0xf4, 0x47, 0xcf, 0x42,
  0x1b, 0xe9, 0x2e, 0x15, 0x3f, 0xec, 0x75, 0xbe, 0xd0, 0xc8, 0xcd, 0x3d,
  0xb8, 0xd3, 0x0e, 0x31, 0x53, 0x57, 0x0b, 0x19, 0x9e, 0x35, 0xf4, 0x79,
  0xa7, 0x4c, 0xad, 0x2d, 0x42, 0x1d, 0xb8, 0x0e, 0x16, 0x3f, 0x0f, 0x4b,
  0x0b, 0x20, 0x67, 0x19, 0x30, 0x26, 0x48, 0x36, 0x9e, 0x2b, 0xe1, 0x6f,
  0x2a, 0x2f, 0xde, 0xcb, 0x4d, 0xc2, 0x43, 0x75, 0xd5, 0xc8, 0xb7, 0xe9,
  0x46, 0x28, 0x71, 0x1c, 0x62, 0x3e, 0x02, 0x94, 0xaa, 0x1c, 0x3c, 0xeb,
  0xd8, 0x17, 0x31, 0x3b, 0xf9, 0x22, 0x19, 0xe8, 0xf5, 0xf6, 0x98, 0xd6,
  0x9c, 0x4c, 0x12, 0x29, 0xd3, 0xca, 0x1a, 0x03, 0x56, 0xf5, 0x2a, 0xc4,
  0x13, 0xb1, 0xe8, 0xbd, 0xcf, 0x00, 0x16, 0x25, 0xbf, 0x47, 0xc0, 0x98,
  0x8e, 0xfe, 0xff, 0xff, 0x04, 0x00, 0x00, 0x00, 0x40, 0x00, 0x00, 0x00,
  0xaf, 0xff, 0xff, 0xff, 0x54, 0x00, 0x00, 0x00, 0xbb, 0xff, 0xff, 0xff,
  0x35, 0x00, 0x00, 0x00, 0xbd, 0xff, 0xff, 0xff, 0x49, 0x00, 0x00, 0x00,
  0xca, 0xff, 0xff, 0xff, 0xc4, 0xff, 0xff, 0xff, 0x9a, 0xff, 0xff, 0xff,
  0x1c, 0x00, 0x00, 0x00, 0xbe, 0xff, 0xff, 0xff, 0xe3, 0xff, 0xff, 0xff,
  0xdc, 0xff, 0xff, 0xff, 0x54, 0x00, 0x00, 0x00, 0xa5, 0xff, 0xff, 0xff,
  0xdc, 0xff, 0xff, 0xff, 0xda, 0xfe, 0xff, 0xff, 0x04, 0x00, 0x00, 0x00,
  0x20, 0x00, 0x00, 0x00, 0x40, 0x5d, 0xdd, 0xee, 0x81, 0x40, 0xc3, 0x25,
  0x38, 0x96, 0x33, 0x8f, 0xf3, 0x62, 0x42, 0x8b, 0xf5, 0xb3, 0xc9, 0x4e,
  0xe0, 0xd6, 0x02, 0x93, 0xbe, 0x7f, 0xf0, 0x28, 0x0e, 0xfd, 0xf6, 0x47,
  0x06, 0xff, 0xff, 0xff, 0x04, 0x00, 0x00, 0x00, 0x08, 0x00, 0x00, 0x00,
  0x19, 0x00, 0x00, 0x00, 0xe8, 0xff, 0xff, 0xff, 0x1a, 0xff, 0xff, 0xff,
  0x04, 0x00, 0x00, 0x00, 0x08, 0x00, 0x00, 0x00, 0xff, 0xff, 0xff, 0xff,
  0xc0, 0x00, 0x00, 0x00, 0x2e, 0xff, 0xff, 0xff, 0x04, 0x00, 0x00, 0x00,
  0x04, 0x00, 0x00, 0x00, 0x02, 0x00, 0x00, 0x00, 0x3e, 0xff, 0xff, 0xff,
  0x04, 0x00, 0x00, 0x00, 0x0c, 0x00, 0x00, 0x00, 0xff, 0xff, 0xff, 0xff,
  0x30, 0x00, 0x00, 0x00, 0x08, 0x00, 0x00, 0x00, 0x56, 0xff, 0xff, 0xff,
  0x04, 0x00, 0x00, 0x00, 0x04, 0x00, 0x00, 0x00, 0xfd, 0xff, 0xff, 0xff,
  0x24, 0xf2, 0xff, 0xff, 0x28, 0xf2, 0xff, 0xff, 0x0f, 0x00, 0x00, 0x00,
  0x4d, 0x4c, 0x49, 0x52, 0x20, 0x43, 0x6f, 0x6e, 0x76, 0x65, 0x72, 0x74,
  0x65, 0x64, 0x2e, 0x00, 0x01, 0x00, 0x00, 0x00, 0x14, 0x00, 0x00, 0x00,
  0x00, 0x00, 0x0e, 0x00, 0x18, 0x00, 0x14, 0x00, 0x10, 0x00, 0x0c, 0x00,
  0x08, 0x00, 0x04, 0x00, 0x0e, 0x00, 0x00, 0x00, 0x14, 0x00, 0x00, 0x00,
  0x1c, 0x00, 0x00, 0x00, 0x68, 0x02, 0x00, 0x00, 0x6c, 0x02, 0x00, 0x00,
  0x70, 0x02, 0x00, 0x00, 0x04, 0x00, 0x00, 0x00, 0x6d, 0x61, 0x69, 0x6e,
  0x00, 0x00, 0x00, 0x00, 0x09, 0x00, 0x00, 0x00, 0x20, 0x02, 0x00, 0x00,
  0xbc, 0x01, 0x00, 0x00, 0x84, 0x01, 0x00, 0x00, 0x48, 0x01, 0x00, 0x00,
  0xf4, 0x00, 0x00, 0x00, 0xbc, 0x00, 0x00, 0x00, 0x78, 0x00, 0x00, 0x00,
  0x40, 0x00, 0x00, 0x00, 0x04, 0x00, 0x00, 0x00, 0x2e, 0xff, 0xff, 0xff,
  0x1c, 0x00, 0x00, 0x00, 0x00, 0x00, 0x00, 0x09, 0x1c, 0x00, 0x00, 0x00,
  0x20, 0x00, 0x00, 0x00, 0x05, 0x00, 0x00, 0x00, 0x00, 0x00, 0x06, 0x00,
  0x08, 0x00, 0x04, 0x00, 0x06, 0x00, 0x00, 0x00, 0x00, 0x00, 0x80, 0x3f,
  0x01, 0x00, 0x00, 0x00, 0x13, 0x00, 0x00, 0x00, 0x01, 0x00, 0x00, 0x00,
  0x12, 0x00, 0x00, 0x00, 0xaa, 0xfe, 0xff, 0xff, 0x14, 0x00, 0x00, 0x00,
  0x00, 0x00, 0x00, 0x08, 0x10, 0x00, 0x00, 0x00, 0x14, 0x00, 0x00, 0x00,
  0x04, 0x00, 0x00, 0x00, 0xf4, 0xf2, 0xff, 0xff, 0x01, 0x00, 0x00, 0x00,
  0x12, 0x00, 0x00, 0x00, 0x03, 0x00, 0x00, 0x00, 0x11, 0x00, 0x00, 0x00,
  0x06, 0x00, 0x00, 0x00, 0x05, 0x00, 0x00, 0x00, 0x9a, 0xff, 0xff, 0xff,
  0x1c, 0x00, 0x00, 0x00, 0x00, 0x00, 0x00, 0x08, 0x1c, 0x00, 0x00, 0x00,
  0x20, 0x00, 0x00, 0x00, 0x04, 0x00, 0x00, 0x00, 0x00, 0x00, 0x06, 0x00,
  0x08, 0x00, 0x07, 0x00, 0x06, 0x00, 0x00, 0x00, 0x00, 0x00, 0x00, 0x01,
  0x01, 0x00, 0x00, 0x00, 0x11, 0x00, 0x00, 0x00, 0x03, 0x00, 0x00, 0x00,
  0x10, 0x00, 0x00, 0x00, 0x08, 0x00, 0x00, 0x00, 0x07, 0x00, 0x00, 0x00,
  0x4e, 0xff, 0xff, 0xff, 0x0c, 0x00, 0x00, 0x00, 0x10, 0x00, 0x00, 0x00,
  0x02, 0x00, 0x00, 0x00, 0x01, 0x00, 0x00, 0x00, 0x10, 0x00, 0x00, 0x00,
  0x02, 0x00, 0x00, 0x00, 0x0f, 0x00, 0x00, 0x00, 0x04, 0x00, 0x00, 0x00,
  0x00, 0x00, 0x0e, 0x00, 0x1a, 0x00, 0x14, 0x00, 0x10, 0x00, 0x0c, 0x00,
  0x0b, 0x00, 0x04, 0x00, 0x0e, 0x00, 0x00, 0x00, 0x24, 0x00, 0x00, 0x00,
  0x00, 0x00, 0x00, 0x05, 0x34, 0x00, 0x00, 0x00, 0x38, 0x00, 0x00, 0x00,
  0x03, 0x00, 0x00, 0x00, 0x00, 0x00, 0x0e, 0x00, 0x18, 0x00, 0x17, 0x00,
  0x10, 0x00, 0x0c, 0x00, 0x08, 0x00, 0x04, 0x00, 0x0e, 0x00, 0x00, 0x00,
  0x02, 0x00, 0x00, 0x00, 0x01, 0x00, 0x00, 0x00, 0x02, 0x00, 0x00, 0x00,
  0x01, 0x00, 0x00, 0x00, 0x00, 0x00, 0x00, 0x01, 0x01, 0x00, 0x00, 0x00,
  0x0f, 0x00, 0x00, 0x00, 0x01, 0x00, 0x00, 0x00, 0x0e, 0x00, 0x00, 0x00,
  0x42, 0xff, 0xff, 0xff, 0x10, 0x00, 0x00, 0x00, 0x00, 0x00, 0x00, 0x34,
  0x0c, 0x00, 0x00, 0x00, 0x10, 0x00, 0x00, 0x00, 0xe8, 0xf3, 0xff, 0xff,
  0x01, 0x00, 0x00, 0x00, 0x0e, 0x00, 0x00, 0x00, 0x02, 0x00, 0x00, 0x00,
  0x0d, 0x00, 0x00, 0x00, 0x03, 0x00, 0x00, 0x00, 0x00, 0x00, 0x0a, 0x00,
  0x10, 0x00, 0x0c, 0x00, 0x08, 0x00, 0x04, 0x00, 0x0a, 0x00, 0x00, 0x00,
  0x0c, 0x00, 0x00, 0x00, 0x10, 0x00, 0x00, 0x00, 0x02, 0x00, 0x00, 0x00,
  0x01, 0x00, 0x00, 0x00, 0x0d, 0x00, 0x00, 0x00, 0x02, 0x00, 0x00, 0x00,
  0x0c, 0x00, 0x00, 0x00, 0x02, 0x00, 0x00, 0x00, 0x00, 0x00, 0x0e, 0x00,
  0x18, 0x00, 0x14, 0x00, 0x10, 0x00, 0x0c, 0x00, 0x0b, 0x00, 0x04, 0x00,
  0x0e, 0x00, 0x00, 0x00, 0x20, 0x00, 0x00, 0x00, 0x00, 0x00, 0x00, 0x01,
  0x2c, 0x00, 0x00, 0x00, 0x30, 0x00, 0x00, 0x00, 0x01, 0x00, 0x00, 0x00,
  0x0c, 0x00, 0x14, 0x00, 0x13, 0x00, 0x0c, 0x00, 0x08, 0x00, 0x07, 0x00,
  0x0c, 0x00, 0x00, 0x00, 0x00, 0x00, 0x00, 0x01, 0x01, 0x00, 0x00, 0x00,
  0x01, 0x00, 0x00, 0x00, 0x00, 0x00, 0x00, 0x01, 0x01, 0x00, 0x00, 0x00,
  0x0c, 0x00, 0x00, 0x00, 0x03, 0x00, 0x00, 0x00, 0x0b, 0x00, 0x00, 0x00,
  0x0a, 0x00, 0x00, 0x00, 0x09, 0x00, 0x00, 0x00, 0x00, 0x00, 0x0e, 0x00,
  0x14, 0x00, 0x00, 0x00, 0x10, 0x00, 0x0c, 0x00, 0x0b, 0x00, 0x04, 0x00,
  0x0e, 0x00, 0x00, 0x00, 0x10, 0x00, 0x00, 0x00, 0x00, 0x00, 0x00, 0x34,
  0x0c, 0x00, 0x00, 0x00, 0x10, 0x00, 0x00, 0x00, 0xb4, 0xf4, 0xff, 0xff,
  0x01, 0x00, 0x00, 0x00, 0x0b, 0x00, 0x00, 0x00, 0x02, 0x00, 0x00, 0x00,
  0x00, 0x00, 0x00, 0x00, 0x01, 0x00, 0x00, 0x00, 0x01, 0x00, 0x00, 0x00,
  0x13, 0x00, 0x00, 0x00, 0x01, 0x00, 0x00, 0x00, 0x00, 0x00, 0x00, 0x00,
  0x14, 0x00, 0x00, 0x00, 0x58, 0x0b, 0x00, 0x00, 0x00, 0x0b, 0x00, 0x00,
  0xa8, 0x0a, 0x00, 0x00, 0x6c, 0x0a, 0x00, 0x00, 0x2c, 0x0a, 0x00, 0x00,
  0xbc, 0x09, 0x00, 0x00, 0x48, 0x09, 0x00, 0x00, 0x34, 0x08, 0x00, 0x00,
  0x18, 0x07, 0x00, 0x00, 0x64, 0x06, 0x00, 0x00, 0xa0, 0x05, 0x00, 0x00,
  0x0c, 0x05, 0x00, 0x00, 0x30, 0x04, 0x00, 0x00, 0x70, 0x03, 0x00, 0x00,
  0xd8, 0x02, 0x00, 0x00, 0x44, 0x02, 0x00, 0x00, 0xc8, 0x01, 0x00, 0x00,
  0x1c, 0x01, 0x00, 0x00, 0x80, 0x00, 0x00, 0x00, 0x04, 0x00, 0x00, 0x00,
  0x0e, 0xf5, 0xff, 0xff, 0x00, 0x00, 0x00, 0x01, 0x18, 0x00, 0x00, 0x00,
  0x20, 0x00, 0x00, 0x00, 0x3c, 0x00, 0x00, 0x00, 0x14, 0x00, 0x00, 0x00,
  0x00, 0x00, 0x00, 0x09, 0x50, 0x00, 0x00, 0x00, 0x02, 0x00, 0x00, 0x00,
  0xff, 0xff, 0xff, 0xff, 0x02, 0x00, 0x00, 0x00, 0xf4, 0xf4, 0xff, 0xff,
  0x08, 0x00, 0x00, 0x00, 0x10, 0x00, 0x00, 0x00, 0x01, 0x00, 0x00, 0x00,
  0x80, 0xff, 0xff, 0xff, 0xff, 0xff, 0xff, 0xff, 0x01, 0x00, 0x00, 0x00,
  0x00, 0x00, 0x80, 0x3b, 0x19, 0x00, 0x00, 0x00, 0x53, 0x74, 0x61, 0x74,
  0x65, 0x66, 0x75, 0x6c, 0x50, 0x61, 0x72, 0x74, 0x69, 0x74, 0x69, 0x6f,
  0x6e, 0x65, 0x64, 0x43, 0x61, 0x6c, 0x6c, 0x3a, 0x30, 0x00, 0x00, 0x00,
  0x02, 0x00, 0x00, 0x00, 0x01, 0x00, 0x00, 0x00, 0x02, 0x00, 0x00, 0x00,
  0x86, 0xf5, 0xff, 0xff, 0x00, 0x00, 0x00, 0x01, 0x18, 0x00, 0x00, 0x00,
  0x20, 0x00, 0x00, 0x00, 0x40, 0x00, 0x00, 0x00, 0x13, 0x00, 0x00, 0x00,
  0x00, 0x00, 0x00, 0x09, 0x70, 0x00, 0x00, 0x00, 0x02, 0x00, 0x00, 0x00,
  0xff, 0xff, 0xff, 0xff, 0x02, 0x00, 0x00, 0x00, 0x6c, 0xf5, 0xff, 0xff,
  0x08, 0x00, 0x00, 0x00, 0x14, 0x00, 0x00, 0x00, 0x01, 0x00, 0x00, 0x00,
  0x1c, 0x00, 0x00, 0x00, 0x00, 0x00, 0x00, 0x00, 0x00, 0x00, 0x00, 0x00,
  0x01, 0x00, 0x00, 0x00, 0xf6, 0x16, 0xb0, 0x3e, 0x34, 0x00, 0x00, 0x00,
  0x73, 0x65, 0x71, 0x75, 0x65, 0x6e, 0x74, 0x69, 0x61, 0x6c, 0x2f, 0x64,
  0x65, 0x6e, 0x73, 0x65, 0x5f, 0x31, 0x2f, 0x4d, 0x61, 0x74, 0x4d, 0x75,
  0x6c, 0x3b, 0x73, 0x65, 0x71, 0x75, 0x65, 0x6e, 0x74, 0x69, 0x61, 0x6c,
  0x2f, 0x64, 0x65, 0x6e, 0x73, 0x65, 0x5f, 0x31, 0x2f, 0x42, 0x69, 0x61,
  0x73, 0x41, 0x64, 0x64, 0x00, 0x00, 0x00, 0x00, 0x02, 0x00, 0x00, 0x00,
  0x01, 0x00, 0x00, 0x00, 0x02, 0x00, 0x00, 0x00, 0x1e, 0xf6, 0xff, 0xff,
  0x00, 0x00, 0x00, 0x01, 0x18, 0x00, 0x00, 0x00, 0x20, 0x00, 0x00, 0x00,
  0x40, 0x00, 0x00, 0x00, 0x12, 0x00, 0x00, 0x00, 0x00, 0x00, 0x00, 0x09,
  0x80, 0x00, 0x00, 0x00, 0x02, 0x00, 0x00, 0x00, 0xff, 0xff, 0xff, 0xff,
  0x10, 0x00, 0x00, 0x00, 0x04, 0xf6, 0xff, 0xff, 0x08, 0x00, 0x00, 0x00,
  0x14, 0x00, 0x00, 0x00, 0x01, 0x00, 0x00, 0x00, 0x80, 0xff, 0xff, 0xff,
  0xff, 0xff, 0xff, 0xff, 0x00, 0x00, 0x00, 0x00, 0x01, 0x00, 0x00, 0x00,
  0x44, 0x90, 0x09, 0x3e, 0x46, 0x00, 0x00, 0x00, 0x73, 0x65, 0x71, 0x75,
  0x65, 0x6e, 0x74, 0x69, 0x61, 0x6c, 0x2f, 0x64, 0x65, 0x6e, 0x73, 0x65,
  0x2f, 0x4d, 0x61, 0x74, 0x4d, 0x75, 0x6c, 0x3b, 0x73, 0x65, 0x71, 0x75,
  0x65, 0x6e, 0x74, 0x69, 0x61, 0x6c, 0x2f, 0x64, 0x65, 0x6e, 0x73, 0x65,
  0x2f, 0x52, 0x65, 0x6c, 0x75, 0x3b, 0x73, 0x65, 0x71, 0x75, 0x65, 0x6e,
  0x74, 0x69, 0x61, 0x6c, 0x2f, 0x64, 0x65, 0x6e, 0x73, 0x65, 0x2f, 0x42,
  0x69, 0x61, 0x73, 0x41, 0x64, 0x64, 0x00, 0x00, 0x02, 0x00, 0x00, 0x00,
  0x01, 0x00, 0x00, 0x00, 0x10, 0x00, 0x00, 0x00, 0xc6, 0xf6, 0xff, 0xff,
  0x00, 0x00, 0x00, 0x01, 0x18, 0x00, 0x00, 0x00, 0x20, 0x00, 0x00, 0x00,
  0x3c, 0x00, 0x00, 0x00, 0x11, 0x00, 0x00, 0x00, 0x00, 0x00, 0x00, 0x09,
  0x50, 0x00, 0x00, 0x00, 0x02, 0x00, 0x00, 0x00, 0xff, 0xff, 0xff, 0xff,
  0xc0, 0x00, 0x00, 0x00, 0xac, 0xf6, 0xff, 0xff, 0x08, 0x00, 0x00, 0x00,
  0x10, 0x00, 0x00, 0x00, 0x01, 0x00, 0x00, 0x00, 0x80, 0xff, 0xff, 0xff,
  0xff, 0xff, 0xff, 0xff, 0x01, 0x00, 0x00, 0x00, 0xde, 0x0a, 0x0e, 0x3e,
  0x1a, 0x00, 0x00, 0x00, 0x73, 0x65, 0x71, 0x75, 0x65, 0x6e, 0x74, 0x69,
  0x61, 0x6c, 0x2f, 0x66, 0x6c, 0x61, 0x74, 0x74, 0x65, 0x6e, 0x2f, 0x52,
  0x65, 0x73, 0x68, 0x61, 0x70, 0x65, 0x00, 0x00, 0x02, 0x00, 0x00, 0x00,
  0x01, 0x00, 0x00, 0x00, 0xc0, 0x00, 0x00, 0x00, 0x3e, 0xf7, 0xff, 0xff,
  0x00, 0x00, 0x00, 0x01, 0x18, 0x00, 0x00, 0x00, 0x28, 0x00, 0x00, 0x00,
  0x44, 0x00, 0x00, 0x00, 0x10, 0x00, 0x00, 0x00, 0x00, 0x00, 0x00, 0x09,
  0x60, 0x00, 0x00, 0x00, 0x04, 0x00, 0x00, 0x00, 0xff, 0xff, 0xff, 0xff,
  0x18, 0x00, 0x00, 0x00, 0x01, 0x00, 0x00, 0x00, 0x08, 0x00, 0x00, 0x00,
  0x2c, 0xf7, 0xff, 0xff, 0x08, 0x00, 0x00, 0x00, 0x10, 0x00, 0x00, 0x00,
  0x01, 0x00, 0x00, 0x00, 0x80, 0xff, 0xff, 0xff, 0xff, 0xff, 0xff, 0xff,
  0x01, 0x00, 0x00, 0x00, 0xde, 0x0a, 0x0e, 0x3e, 0x20, 0x00, 0x00, 0x00,
  0x73, 0x65, 0x71, 0x75, 0x65, 0x6e, 0x74, 0x69, 0x61, 0x6c, 0x2f, 0x6d,
  0x61, 0x78, 0x5f, 0x70, 0x6f, 0x6f, 0x6c, 0x69, 0x6e, 0x67, 0x31, 0x64,
  0x2f, 0x4d, 0x61, 0x78, 0x50, 0x6f, 0x6f, 0x6c, 0x00, 0x00, 0x00, 0x00,
  0x04, 0x00, 0x00, 0x00, 0x01, 0x00, 0x00, 0x00, 0x18, 0x00, 0x00, 0x00,
  0x01, 0x00, 0x00, 0x00, 0x08, 0x00, 0x00, 0x00, 0xce, 0xf7, 0xff, 0xff,
  0x00, 0x00, 0x00, 0x01, 0x18, 0x00, 0x00, 0x00, 0x28, 0x00, 0x00, 0x00,
  0x48, 0x00, 0x00, 0x00, 0x0f, 0x00, 0x00, 0x00, 0x00, 0x00, 0x00, 0x09,
  0x64, 0x00, 0x00, 0x00, 0x04, 0x00, 0x00, 0x00, 0xff, 0xff, 0xff, 0xff,
  0x30, 0x00, 0x00, 0x00, 0x01, 0x00, 0x00, 0x00, 0x08, 0x00, 0x00, 0x00,
  0xbc, 0xf7, 0xff, 0xff, 0x08, 0x00, 0x00, 0x00, 0x14, 0x00, 0x00, 0x00,
  0x01, 0x00, 0x00, 0x00, 0x80, 0xff, 0xff, 0xff, 0xff, 0xff, 0xff, 0xff,
  0x00, 0x00, 0x00, 0x00, 0x01, 0x00, 0x00, 0x00, 0xde, 0x0a, 0x0e, 0x3e,
  0x23, 0x00, 0x00, 0x00, 0x73, 0x65, 0x71, 0x75, 0x65, 0x6e, 0x74, 0x69,
  0x61, 0x6c, 0x2f, 0x6d, 0x61, 0x78, 0x5f, 0x70, 0x6f, 0x6f, 0x6c, 0x69,
  0x6e, 0x67, 0x31, 0x64, 0x2f, 0x45, 0x78, 0x70, 0x61, 0x6e, 0x64, 0x44,
  0x69, 0x6d, 0x73, 0x00, 0x04, 0x00, 0x00, 0x00, 0x01, 0x00, 0x00, 0x00,
  0x30, 0x00, 0x00, 0x00, 0x01, 0x00, 0x00, 0x00, 0x08, 0x00, 0x00, 0x00,
  0x62, 0xf8, 0xff, 0xff, 0x00, 0x00, 0x00, 0x01, 0x18, 0x00, 0x00, 0x00,
  0x24, 0x00, 0x00, 0x00, 0x44, 0x00, 0x00, 0x00, 0x0e, 0x00, 0x00, 0x00,
  0x00, 0x00, 0x00, 0x09, 0x90, 0x00, 0x00, 0x00, 0x03, 0x00, 0x00, 0x00,
  0xff, 0xff, 0xff, 0xff, 0x30, 0x00, 0x00, 0x00, 0x08, 0x00, 0x00, 0x00,
  0x4c, 0xf8, 0xff, 0xff, 0x08, 0x00, 0x00, 0x00, 0x14, 0x00, 0x00, 0x00,
  0x01, 0x00, 0x00, 0x00, 0x80, 0xff, 0xff, 0xff, 0xff, 0xff, 0xff, 0xff,
  0x00, 0x00, 0x00, 0x00, 0x01, 0x00, 0x00, 0x00, 0xde, 0x0a, 0x0e, 0x3e,
  0x52, 0x00, 0x00, 0x00, 0x73, 0x65, 0x71, 0x75, 0x65, 0x6e, 0x74, 0x69,
  0x61, 0x6c, 0x2f, 0x63, 0x6f, 0x6e, 0x76, 0x31, 0x64, 0x2f, 0x52, 0x65,
  0x6c, 0x75, 0x3b, 0x73, 0x65, 0x71, 0x75, 0x65, 0x6e, 0x74, 0x69, 0x61,
  0x6c, 0x2f, 0x63, 0x6f, 0x6e, 0x76, 0x31, 0x64, 0x2f, 0x42, 0x69, 0x61,
  0x73, 0x41, 0x64, 0x64, 0x3b, 0x73, 0x65, 0x71, 0x75, 0x65, 0x6e, 0x74,
  0x69, 0x61, 0x6c, 0x2f, 0x63, 0x6f, 0x6e, 0x76, 0x31, 0x64, 0x2f, 0x43,
  0x6f, 0x6e, 0x76, 0x31, 0x44, 0x2f, 0x53, 0x71, 0x75, 0x65, 0x65, 0x7a,
  0x65, 0x3b, 0x00, 0x00, 0x03, 0x00, 0x00, 0x00, 0x01, 0x00, 0x00, 0x00,
  0x30, 0x00, 0x00, 0x00, 0x08, 0x00, 0x00, 0x00, 0x1e, 0xf9, 0xff, 0xff,
  0x00, 0x00, 0x00, 0x01, 0x18, 0x00, 0x00, 0x00, 0x28, 0x00, 0x00, 0x00,
  0x44, 0x00, 0x00, 0x00, 0x0d, 0x00, 0x00, 0x00, 0x00, 0x00, 0x00, 0x09,
  0xa8, 0x00, 0x00, 0x00, 0x04, 0x00, 0x00, 0x00, 0xff, 0xff, 0xff, 0xff,
  0x01, 0x00, 0x00, 0x00, 0x30, 0x00, 0x00, 0x00, 0x08, 0x00, 0x00, 0x00,
  0x0c, 0xf9, 0xff, 0xff, 0x08, 0x00, 0x00, 0x00, 0x10, 0x00, 0x00, 0x00,
  0x01, 0x00, 0x00, 0x00, 0x80, 0xff, 0xff, 0xff, 0xff, 0xff, 0xff, 0xff,
  0x01, 0x00, 0x00, 0x00, 0xde, 0x0a, 0x0e, 0x3e, 0x6b, 0x00, 0x00, 0x00,
  0x73, 0x65, 0x71, 0x75, 0x65, 0x6e, 0x74, 0x69, 0x61, 0x6c, 0x2f, 0x63,
  0x6f, 0x6e, 0x76, 0x31, 0x64, 0x2f, 0x52, 0x65, 0x6c, 0x75, 0x3b, 0x73,
  0x65, 0x71, 0x75, 0x65, 0x6e, 0x74, 0x69, 0x61, 0x6c, 0x2f, 0x63, 0x6f,
  0x6e, 0x76, 0x31, 0x64, 0x2f, 0x42, 0x69, 0x61, 0x73, 0x41, 0x64, 0x64,
  0x3b, 0x73, 0x65, 0x71, 0x75, 0x65, 0x6e, 0x74, 0x69, 0x61, 0x6c, 0x2f,
  0x63, 0x6f, 0x6e, 0x76, 0x31, 0x64, 0x2f, 0x43, 0x6f, 0x6e, 0x76, 0x31,
  0x44, 0x2f, 0x53, 0x71, 0x75, 0x65, 0x65, 0x7a, 0x65, 0x3b, 0x3b, 0x73,
  0x65, 0x71, 0x75, 0x65, 0x6e, 0x74, 0x69, 0x61, 0x6c, 0x2f, 0x63, 0x6f,
  0x6e, 0x76, 0x31, 0x64, 0x2f, 0x43, 0x6f, 0x6e, 0x76, 0x31, 0x44, 0x00,
  0x04, 0x00, 0x00, 0x00, 0x01, 0x00, 0x00, 0x00, 0x01, 0x00, 0x00, 0x00,
  0x30, 0x00, 0x00, 0x00, 0x08, 0x00, 0x00, 0x00, 0xf6, 0xf9, 0xff, 0xff,
  0x00, 0x00, 0x00, 0x01, 0x18, 0x00, 0x00, 0x00, 0x28, 0x00, 0x00, 0x00,
  0x44, 0x00, 0x00, 0x00, 0x0c, 0x00, 0x00, 0x00, 0x00, 0x00, 0x00, 0x09,
  0x60, 0x00, 0x00, 0x00, 0x04, 0x00, 0x00, 0x00, 0xff, 0xff, 0xff, 0xff,
  0x01, 0x00, 0x00, 0x00, 0x32, 0x00, 0x00, 0x00, 0x03, 0x00, 0x00, 0x00,
  0xe4, 0xf9, 0xff, 0xff, 0x08, 0x00, 0x00, 0x00, 0x10, 0x00, 0x00, 0x00,
  0x01, 0x00, 0x00, 0x00, 0xfe, 0xff, 0xff, 0xff, 0xff, 0xff, 0xff, 0xff,
  0x01, 0x00, 0x00, 0x00, 0x2e, 0x61, 0x94, 0x3e, 0x23, 0x00, 0x00, 0x00,
  0x73, 0x65, 0x71, 0x75, 0x65, 0x6e, 0x74, 0x69, 0x61, 0x6c, 0x2f, 0x63,
  0x6f, 0x6e, 0x76, 0x31, 0x64, 0x2f, 0x43, 0x6f, 0x6e, 0x76, 0x31, 0x44,
  0x2f, 0x45, 0x78, 0x70, 0x61, 0x6e, 0x64, 0x44, 0x69, 0x6d, 0x73, 0x00,
  0x04, 0x00, 0x00, 0x00, 0x01, 0x00, 0x00, 0x00, 0x01, 0x00, 0x00, 0x00,
  0x32, 0x00, 0x00, 0x00, 0x03, 0x00, 0x00, 0x00, 0xda, 0xfa, 0xff, 0xff,
  0x00, 0x00, 0x00, 0x01, 0x14, 0x00, 0x00, 0x00, 0x88, 0x00, 0x00, 0x00,
  0x0b, 0x00, 0x00, 0x00, 0x00, 0x00, 0x00, 0x09, 0x94, 0x00, 0x00, 0x00,
  0x5c, 0xfa, 0xff, 0xff, 0x08, 0x00, 0x00, 0x00, 0x4c, 0x00, 0x00, 0x00,
  0x08, 0x00, 0x00, 0x00, 0x00, 0x00, 0x00, 0x00, 0x00, 0x00, 0x00, 0x00,
  0x00, 0x00, 0x00, 0x00, 0x00, 0x00, 0x00, 0x00, 0x00, 0x00, 0x00, 0x00,
  0x00, 0x00, 0x00, 0x00, 0x00, 0x00, 0x00, 0x00, 0x00, 0x00, 0x00, 0x00,
  0x00, 0x00, 0x00, 0x00, 0x00, 0x00, 0x00, 0x00, 0x00, 0x00, 0x00, 0x00,
  0x00, 0x00, 0x00, 0x00, 0x00, 0x00, 0x00, 0x00, 0x00, 0x00, 0x00, 0x00,
  0x00, 0x00, 0x00, 0x00, 0x00, 0x00, 0x00, 0x00, 0x00, 0x00, 0x00, 0x00,
  0x08, 0x00, 0x00, 0x00, 0x52, 0xc6, 0x47, 0x3b, 0x1c, 0xbd, 0x14, 0x3b,
  0xae, 0xc1, 0x49, 0x3b, 0x50, 0xa6, 0x3b, 0x3b, 0x2e, 0x20, 0x36, 0x3b,
  0x9f, 0x00, 0x56, 0x3b, 0xf7, 0xbe, 0x56, 0x3b, 0x4d, 0x74, 0x3e, 0x3b,
  0x12, 0x00, 0x00, 0x00, 0x74, 0x66, 0x6c, 0x2e, 0x70, 0x73, 0x65, 0x75,
  0x64, 0x6f, 0x5f, 0x71, 0x63, 0x6f, 0x6e, 0x73, 0x74, 0x35, 0x00, 0x00,
  0x04, 0x00, 0x00, 0x00, 0x08, 0x00, 0x00, 0x00, 0x01, 0x00, 0x00, 0x00,
  0x03, 0x00, 0x00, 0x00, 0x03, 0x00, 0x00, 0x00, 0x9a, 0xfb, 0xff, 0xff,
  0x00, 0x00, 0x00, 0x01, 0x14, 0x00, 0x00, 0x00, 0x84, 0x00, 0x00, 0x00,
  0x0a, 0x00, 0x00, 0x00, 0x00, 0x00, 0x00, 0x02, 0x90, 0x00, 0x00, 0x00,
  0x1c, 0xfb, 0xff, 0xff, 0x08, 0x00, 0x00, 0x00, 0x48, 0x00, 0x00, 0x00,
  0x08, 0x00, 0x00, 0x00, 0x00, 0x00, 0x00, 0x00, 0x00, 0x00, 0x00, 0x00,
  0x00, 0x00, 0x00, 0x00, 0x00, 0x00, 0x00, 0x00, 0x00, 0x00, 0x00, 0x00,
  0x00, 0x00, 0x00, 0x00, 0x00, 0x00, 0x00, 0x00, 0x00, 0x00, 0x00, 0x00,
  0x00, 0x00, 0x00, 0x00, 0x00, 0x00, 0x00, 0x00, 0x00, 0x00, 0x00, 0x00,
  0x00, 0x00, 0x00, 0x00, 0x00, 0x00, 0x00, 0x00, 0x00, 0x00, 0x00, 0x00,
  0x00, 0x00, 0x00, 0x00, 0x00, 0x00, 0x00, 0x00, 0x08, 0x00, 0x00, 0x00,
  0xfb, 0x94, 0x67, 0x3a, 0x95, 0x6b, 0x2c, 0x3a, 0x1e, 0xe1, 0x69, 0x3a,
  0xc4, 0x86, 0x59, 0x3a, 0x7b, 0x1f, 0x53, 0x3a, 0x31, 0x13, 0x78, 0x3a,
  0xd7, 0xef, 0x78, 0x3a, 0x12, 0xc7, 0x5c, 0x3a, 0x12, 0x00, 0x00, 0x00,
  0x74, 0x66, 0x6c, 0x2e, 0x70, 0x73, 0x65, 0x75, 0x64, 0x6f, 0x5f, 0x71,
  0x63, 0x6f, 0x6e, 0x73, 0x74, 0x34, 0x00, 0x00, 0x01, 0x00, 0x00, 0x00,
  0x08, 0x00, 0x00, 0x00, 0x4a, 0xfc, 0xff, 0xff, 0x00, 0x00, 0x00, 0x01,
  0x14, 0x00, 0x00, 0x00, 0xe8, 0x00, 0x00, 0x00, 0x09, 0x00, 0x00, 0x00,
  0x00, 0x00, 0x00, 0x09, 0xf4, 0x00, 0x00, 0x00, 0xcc, 0xfb, 0xff, 0xff,
  0x08, 0x00, 0x00, 0x00, 0x8c, 0x00, 0x00, 0x00, 0x10, 0x00, 0x00, 0x00,
  0x00, 0x00, 0x00, 0x00, 0x00, 0x00, 0x00, 0x00, 0x00, 0x00, 0x00, 0x00,
  0x00, 0x00, 0x00, 0x00, 0x00, 0x00, 0x00, 0x00, 0x00, 0x00, 0x00, 0x00,
  0x00, 0x00, 0x00, 0x00, 0x00, 0x00, 0x00, 0x00, 0x00, 0x00, 0x00, 0x00,
  0x00, 0x00, 0x00, 0x00, 0x00, 0x00, 0x00, 0x00, 0x00, 0x00, 0x00, 0x00,
  0x00, 0x00, 0x00, 0x00, 0x00, 0x00, 0x00, 0x00, 0x00, 0x00, 0x00, 0x00,
  0x00, 0x00, 0x00, 0x00, 0x00, 0x00, 0x00, 0x00, 0x00, 0x00, 0x00, 0x00,
  0x00, 0x00, 0x00, 0x00, 0x00, 0x00, 0x00, 0x00, 0x00, 0x00, 0x00, 0x00,
  0x00, 0x00, 0x00, 0x00, 0x00, 0x00, 0x00, 0x00, 0x00, 0x00, 0x00, 0x00,
  0x00, 0x00, 0x00, 0x00, 0x00, 0x00, 0x00, 0x00, 0x00, 0x00, 0x00, 0x00,
  0x00, 0x00, 0x00, 0x00, 0x00, 0x00, 0x00, 0x00, 0x00, 0x00, 0x00, 0x00,
  0x00, 0x00, 0x00, 0x00, 0x00, 0x00, 0x00, 0x00, 0x00, 0x00, 0x00, 0x00,
  0x10, 0x00, 0x00, 0x00, 0xdf, 0x23, 0xb9, 0x3a, 0x0b, 0x7c, 0xd1, 0x3a,
  0x0f, 0x75, 0xb8, 0x3a, 0xc7, 0x9a, 0xe9, 0x3a, 0xac, 0x92, 0xd4, 0x3a,
  0x2c, 0x43, 0xd5, 0x3a, 0x87, 0x3b, 0xd4, 0x3a, 0x19, 0x13, 0xb9, 0x3a,
  0x92, 0x1d, 0xbf, 0x3a, 0x2a, 0x9e, 0xdd, 0x3a, 0x11, 0x59, 0xb6, 0x3a,
  0xf2, 0xa1, 0xcf, 0x3a, 0x6b, 0xfe, 0xd2, 0x3a, 0x72, 0x17, 0xd3, 0x3a,
  0x9f, 0x47, 0xbd, 0x3a, 0x5b, 0x48, 0xd5, 0x3a, 0x12, 0x00, 0x00, 0x00,
  0x74, 0x66, 0x6c, 0x2e, 0x70, 0x73, 0x65, 0x75, 0x64, 0x6f, 0x5f, 0x71,
  0x63, 0x6f, 0x6e, 0x73, 0x74, 0x33, 0x00, 0x00, 0x02, 0x00, 0x00, 0x00,
  0x10, 0x00, 0x00, 0x00, 0xc0, 0x00, 0x00, 0x00, 0x62, 0xfd, 0xff, 0xff,
  0x00, 0x00, 0x00, 0x01, 0x14, 0x00, 0x00, 0x00, 0xe4, 0x00, 0x00, 0x00,
  0x08, 0x00, 0x00, 0x00, 0x00, 0x00, 0x00, 0x02, 0xf0, 0x00, 0x00, 0x00,
  0xe4, 0xfc, 0xff, 0xff, 0x08, 0x00, 0x00, 0x00, 0x88, 0x00, 0x00, 0x00,
  0x10, 0x00, 0x00, 0x00, 0x00, 0x00, 0x00, 0x00, 0x00, 0x00, 0x00, 0x00,
  0x00, 0x00, 0x00, 0x00, 0x00, 0x00, 0x00, 0x00, 0x00, 0x00, 0x00, 0x00,
  0x00, 0x00, 0x00, 0x00, 0x00, 0x00, 0x00, 0x00, 0x00, 0x00, 0x00, 0x00,
  0x00, 0x00, 0x00, 0x00, 0x00, 0x00, 0x00, 0x00, 0x00, 0x00, 0x00, 0x00,
  0x00, 0x00, 0x00, 0x00, 0x00, 0x00, 0x00, 0x00, 0x00, 0x00, 0x00, 0x00,
  0x00, 0x00, 0x00, 0x00, 0x00, 0x00, 0x00, 0x00, 0x00, 0x00, 0x00, 0x00,
  0x00, 0x00, 0x00, 0x00, 0x00, 0x00, 0x00, 0x00, 0x00, 0x00, 0x00, 0x00,
  0x00, 0x00, 0x00, 0x00, 0x00, 0x00, 0x00, 0x00, 0x00, 0x00, 0x00, 0x00,
  0x00, 0x00, 0x00, 0x00, 0x00, 0x00, 0x00, 0x00, 0x00, 0x00, 0x00, 0x00,
  0x00, 0x00, 0x00, 0x00, 0x00, 0x00, 0x00, 0x00, 0x00, 0x00, 0x00, 0x00,
  0x00, 0x00, 0x00, 0x00, 0x00, 0x00, 0x00, 0x00, 0x00, 0x00, 0x00, 0x00,
  0x10, 0x00, 0x00, 0x00, 0x83, 0x73, 0x4d, 0x39, 0x65, 0x77, 0x68, 0x39,
  0x86, 0xb1, 0x4c, 0x39, 0xc5, 0x9d, 0x81, 0x39, 0xc3, 0xe4, 0x6b, 0x39,
  0xa0, 0xa8, 0x6c, 0x39, 0x0f, 0x84, 0x6b, 0x39, 0xe6, 0x60, 0x4d, 0x39,
  0x08, 0x15, 0x54, 0x39, 0x47, 0xee, 0x75, 0x39, 0x4a, 0x5a, 0x4a, 0x39,
  0x49, 0x69, 0x66, 0x39, 0x29, 0x24, 0x6a, 0x39, 0xee, 0x3f, 0x6a, 0x39,
  0x86, 0x0b, 0x52, 0x39, 0x61, 0xae, 0x6c, 0x39, 0x12, 0x00, 0x00, 0x00,
  0x74, 0x66, 0x6c, 0x2e, 0x70, 0x73, 0x65, 0x75, 0x64, 0x6f, 0x5f, 0x71,
  0x63, 0x6f, 0x6e, 0x73, 0x74, 0x32, 0x00, 0x00, 0x01, 0x00, 0x00, 0x00,
  0x10, 0x00, 0x00, 0x00, 0x72, 0xfe, 0xff, 0xff, 0x00, 0x00, 0x00, 0x01,
  0x14, 0x00, 0x00, 0x00, 0x40, 0x00, 0x00, 0x00, 0x07, 0x00, 0x00, 0x00,
  0x00, 0x00, 0x00, 0x09, 0x4c, 0x00, 0x00, 0x00, 0xf4, 0xfd, 0xff, 0xff,
  0x08, 0x00, 0x00, 0x00, 0x1c, 0x00, 0x00, 0x00, 0x02, 0x00, 0x00, 0x00,
  0x00, 0x00, 0x00, 0x00, 0x00, 0x00, 0x00, 0x00, 0x00, 0x00, 0x00, 0x00,
  0x00, 0x00, 0x00, 0x00, 0x00, 0x00, 0x00, 0x00, 0x02, 0x00, 0x00, 0x00,
  0x67, 0x3c, 0x94, 0x3b, 0xc4, 0x98, 0x9a, 0x3b, 0x12, 0x00, 0x00, 0x00,
  0x74, 0x66, 0x6c, 0x2e, 0x70, 0x73, 0x65, 0x75, 0x64, 0x6f, 0x5f, 0x71,
  0x63, 0x6f, 0x6e, 0x73, 0x74, 0x31, 0x00, 0x00, 0x02, 0x00, 0x00, 0x00,
  0x02, 0x00, 0x00, 0x00, 0x10, 0x00, 0x00, 0x00, 0xe2, 0xfe, 0xff, 0xff,
  0x00, 0x00, 0x00, 0x01, 0x14, 0x00, 0x00, 0x00, 0x40, 0x00, 0x00, 0x00,
  0x06, 0x00, 0x00, 0x00, 0x00, 0x00, 0x00, 0x02, 0x4c, 0x00, 0x00, 0x00,
  0x64, 0xfe, 0xff, 0xff, 0x08, 0x00, 0x00, 0x00, 0x1c, 0x00, 0x00, 0x00,
  0x02, 0x00, 0x00, 0x00, 0x00, 0x00, 0x00, 0x00, 0x00, 0x00, 0x00, 0x00,
  0x00, 0x00, 0x00, 0x00, 0x00, 0x00, 0x00, 0x00, 0x00, 0x00, 0x00, 0x00,
  0x02, 0x00, 0x00, 0x00, 0xb9, 0x4f, 0x1f, 0x3a, 0xc0, 0x25, 0x26, 0x3a,
  0x11, 0x00, 0x00, 0x00, 0x74, 0x66, 0x6c, 0x2e, 0x70, 0x73, 0x65, 0x75,
  0x64, 0x6f, 0x5f, 0x71, 0x63, 0x6f, 0x6e, 0x73, 0x74, 0x00, 0x00, 0x00,
  0x01, 0x00, 0x00, 0x00, 0x02, 0x00, 0x00, 0x00, 0x4e, 0xff, 0xff, 0xff,
  0x00, 0x00, 0x00, 0x01, 0x14, 0x00, 0x00, 0x00, 0x14, 0x00, 0x00, 0x00,
  0x05, 0x00, 0x00, 0x00, 0x00, 0x00, 0x00, 0x02, 0x1c, 0x00, 0x00, 0x00,
  0x38, 0xff, 0xff, 0xff, 0x0f, 0x00, 0x00, 0x00, 0x61, 0x72, 0x69, 0x74,
  0x68, 0x2e, 0x63, 0x6f, 0x6e, 0x73, 0x74, 0x61, 0x6e, 0x74, 0x33, 0x00,
  0x01, 0x00, 0x00, 0x00, 0x02, 0x00, 0x00, 0x00, 0x8a, 0xff, 0xff, 0xff,
  0x00, 0x00, 0x00, 0x01, 0x14, 0x00, 0x00, 0x00, 0x14, 0x00, 0x00, 0x00,
  0x04, 0x00, 0x00, 0x00, 0x00, 0x00, 0x00, 0x02, 0x1c, 0x00, 0x00, 0x00,
  0x74, 0xff, 0xff, 0xff, 0x0f, 0x00, 0x00, 0x00, 0x61, 0x72, 0x69, 0x74,
  0x68, 0x2e, 0x63, 0x6f, 0x6e, 0x73, 0x74, 0x61, 0x6e, 0x74, 0x32, 0x00,
  0x00, 0x00, 0x00, 0x00, 0xc2, 0xff, 0xff, 0xff, 0x00, 0x00, 0x00, 0x01,
  0x14, 0x00, 0x00, 0x00, 0x14, 0x00, 0x00, 0x00, 0x03, 0x00, 0x00, 0x00,
  0x00, 0x00, 0x00, 0x02, 0x1c, 0x00, 0x00, 0x00, 0xac, 0xff, 0xff, 0xff,
  0x0f, 0x00, 0x00, 0x00, 0x61, 0x72, 0x69, 0x74, 0x68, 0x2e, 0x63, 0x6f,
  0x6e, 0x73, 0x74, 0x61, 0x6e, 0x74, 0x31, 0x00, 0x01, 0x00, 0x00, 0x00,
  0x03, 0x00, 0x00, 0x00, 0x00, 0x00, 0x16, 0x00, 0x1c, 0x00, 0x18, 0x00,
  0x17, 0x00, 0x10, 0x00, 0x0c, 0x00, 0x08, 0x00, 0x00, 0x00, 0x00, 0x00,
  0x00, 0x00, 0x07, 0x00, 0x16, 0x00, 0x00, 0x00, 0x00, 0x00, 0x00, 0x01,
  0x18, 0x00, 0x00, 0x00, 0x18, 0x00, 0x00, 0x00, 0x02, 0x00, 0x00, 0x00,
  0x00, 0x00, 0x00, 0x02, 0x20, 0x00, 0x00, 0x00, 0x04, 0x00, 0x04, 0x00,
  0x04, 0x00, 0x00, 0x00, 0x0e, 0x00, 0x00, 0x00, 0x61, 0x72, 0x69, 0x74,
  0x68, 0x2e, 0x63, 0x6f, 0x6e, 0x73, 0x74, 0x61, 0x6e, 0x74, 0x00, 0x00,
  0x00, 0x00, 0x00, 0x00, 0x00, 0x00, 0x16, 0x00, 0x20, 0x00, 0x1c, 0x00,
  0x1b, 0x00, 0x14, 0x00, 0x10, 0x00, 0x0c, 0x00, 0x00, 0x00, 0x00, 0x00,
  0x08, 0x00, 0x07, 0x00, 0x16, 0x00, 0x00, 0x00, 0x00, 0x00, 0x00, 0x01,
  0x18, 0x00, 0x00, 0x00, 0x30, 0x00, 0x00, 0x00, 0x4c, 0x00, 0x00, 0x00,
  0x01, 0x00, 0x00, 0x00, 0x00, 0x00, 0x00, 0x09, 0x64, 0x00, 0x00, 0x00,
  0x03, 0x00, 0x00, 0x00, 0xff, 0xff, 0xff, 0xff, 0x32, 0x00, 0x00, 0x00,
  0x03, 0x00, 0x00, 0x00, 0x0c, 0x00, 0x0c, 0x00, 0x00, 0x00, 0x00, 0x00,
  0x08, 0x00, 0x04, 0x00, 0x0c, 0x00, 0x00, 0x00, 0x08, 0x00, 0x00, 0x00,
  0x10, 0x00, 0x00, 0x00, 0x01, 0x00, 0x00, 0x00, 0xfe, 0xff, 0xff, 0xff,
  0xff, 0xff, 0xff, 0xff, 0x01, 0x00, 0x00, 0x00, 0x2e, 0x61, 0x94, 0x3e,
  0x1e, 0x00, 0x00, 0x00, 0x73, 0x65, 0x72, 0x76, 0x69, 0x6e, 0x67, 0x5f,
  0x64, 0x65, 0x66, 0x61, 0x75, 0x6c, 0x74, 0x5f, 0x63, 0x6f, 0x6e, 0x76,
  0x31, 0x64, 0x5f, 0x69, 0x6e, 0x70, 0x75, 0x74, 0x3a, 0x30, 0x00, 0x00,
  0x03, 0x00, 0x00, 0x00, 0x01, 0x00, 0x00, 0x00, 0x32, 0x00, 0x00, 0x00,
  0x03, 0x00, 0x00, 0x00, 0x06, 0x00, 0x00, 0x00, 0x7c, 0x00, 0x00, 0x00,
  0x5c, 0x00, 0x00, 0x00, 0x40, 0x00, 0x00, 0x00, 0x2c, 0x00, 0x00, 0x00,
  0x18, 0x00, 0x00, 0x00, 0x04, 0x00, 0x00, 0x00, 0xc4, 0xff, 0xff, 0xff,
  0x19, 0x00, 0x00, 0x00, 0x02, 0x00, 0x00, 0x00, 0x00, 0x00, 0x00, 0x19,
  0xd4, 0xff, 0xff, 0xff, 0x09, 0x00, 0x00, 0x00, 0x04, 0x00, 0x00, 0x00,
  0x00, 0x00, 0x00, 0x09, 0xe4, 0xff, 0xff, 0xff, 0x11, 0x00, 0x00, 0x00,
  0x02, 0x00, 0x00, 0x00, 0x00, 0x00, 0x00, 0x11, 0xd8, 0xff, 0xff, 0xff,
  0x16, 0x00, 0x00, 0x00, 0x00, 0x00, 0x00, 0x16, 0x0c, 0x00, 0x10, 0x00,
  0x0f, 0x00, 0x00, 0x00, 0x08, 0x00, 0x04, 0x00, 0x0c, 0x00, 0x00, 0x00,
  0x03, 0x00, 0x00, 0x00, 0x03, 0x00, 0x00, 0x00, 0x00, 0x00, 0x00, 0x03,
  0x0c, 0x00, 0x0c, 0x00, 0x0b, 0x00, 0x00, 0x00, 0x00, 0x00, 0x04, 0x00,
  0x0c, 0x00, 0x00, 0x00, 0x46, 0x00, 0x00, 0x00, 0x00, 0x00, 0x00, 0x46
};
const unsigned int magic_wand_model_data_len = 7848;
